#pragma once

// Auto-generated TFLite model — do not edit manually
// Model size: 12136 bytes (11.9 KB)
// Input:  47 float features (scaled)
// Output: 1 value, sigmoid — threshold at 0.48 for fall detection

const unsigned char fall_detection_model[] = {
  0x20, 0x00, 0x00, 0x00, 0x54, 0x46, 0x4c, 0x33, 0x00, 0x00, 0x00, 0x00, 0x14, 0x00, 0x20, 0x00, 0x1c, 0x00, 0x18, 0x00, 0x14, 0x00, 0x10, 0x00, 0x0c, 0x00, 0x00, 0x00, 0x08, 0x00, 0x04, 0x00, 0x14, 0x00, 0x00, 0x00, 0x1c, 0x00, 0x00, 0x00, 0x8c, 0x00, 0x00, 0x00, 0xe4, 0x00, 0x00, 0x00, 0xd8, 0x19, 0x00, 0x00, 0xe8, 0x19, 0x00, 0x00, 0xc8, 0x2e, 0x00, 0x00, 0x03, 0x00, 0x00, 0x00, 0x01, 0x00, 0x00, 0x00, 0x04, 0x00, 0x00, 0x00, 0xae, 0xe5, 0xff, 0xff, 0x0c, 0x00, 0x00, 0x00, 0x1c, 0x00, 0x00, 0x00, 0x3c, 0x00, 0x00, 0x00, 0x0f, 0x00, 0x00, 0x00, 0x73, 0x65, 0x72, 0x76, 0x69, 0x6e, 0x67, 0x5f, 0x64, 0x65, 0x66, 0x61, 0x75, 0x6c, 0x74, 0x00, 0x01, 0x00, 0x00, 0x00, 0x04, 0x00, 0x00, 0x00, 0x90, 0xff, 0xff, 0xff, 0x0f, 0x00, 0x00, 0x00, 0x04, 0x00, 0x00, 0x00, 0x08, 0x00, 0x00, 0x00, 0x6f, 0x75, 0x74, 0x70, 0x75, 0x74, 0x5f, 0x30, 0x00, 0x00, 0x00, 0x00, 0x01, 0x00, 0x00, 0x00, 0x04, 0x00, 0x00, 0x00, 0xae, 0xe6, 0xff, 0xff, 0x04, 0x00, 0x00, 0x00, 0x0c, 0x00, 0x00, 0x00, 0x6b, 0x65, 0x72, 0x61, 0x73, 0x5f, 0x74, 0x65, 0x6e, 0x73, 0x6f, 0x72, 0x00, 0x00, 0x00, 0x00, 0x02, 0x00, 0x00, 0x00, 0x34, 0x00, 0x00, 0x00, 0x04, 0x00, 0x00, 0x00, 0xdc, 0xff, 0xff, 0xff, 0x12, 0x00, 0x00, 0x00, 0x04, 0x00, 0x00, 0x00, 0x13, 0x00, 0x00, 0x00, 0x43, 0x4f, 0x4e, 0x56, 0x45, 0x52, 0x53, 0x49, 0x4f, 0x4e, 0x5f, 0x4d, 0x45, 0x54, 0x41, 0x44, 0x41, 0x54, 0x41, 0x00, 0x08, 0x00, 0x0c, 0x00, 0x08, 0x00, 0x04, 0x00, 0x08, 0x00, 0x00, 0x00, 0x11, 0x00, 0x00, 0x00, 0x04, 0x00, 0x00, 0x00, 0x13, 0x00, 0x00, 0x00, 0x6d, 0x69, 0x6e, 0x5f, 0x72, 0x75, 0x6e, 0x74, 0x69, 0x6d, 0x65, 0x5f, 0x76, 0x65, 0x72, 0x73, 0x69, 0x6f, 0x6e, 0x00, 0x13, 0x00, 0x00, 0x00, 0xf0, 0x18, 0x00, 0x00, 0xe8, 0x18, 0x00, 0x00, 0xd4, 0x18, 0x00, 0x00, 0xac, 0x18, 0x00, 0x00, 0x5c, 0x18, 0x00, 0x00, 0x4c, 0x16, 0x00, 0x00, 0xbc, 0x15, 0x00, 0x00, 0xac, 0x0d, 0x00, 0x00, 0x9c, 0x0c, 0x00, 0x00, 0xcc, 0x00, 0x00, 0x00, 0xc4, 0x00, 0x00, 0x00, 0xbc, 0x00, 0x00, 0x00, 0xb4, 0x00, 0x00, 0x00, 0xac, 0x00, 0x00, 0x00, 0xa4, 0x00, 0x00, 0x00, 0x9c, 0x00, 0x00, 0x00, 0x94, 0x00, 0x00, 0x00, 0x74, 0x00, 0x00, 0x00, 0x04, 0x00, 0x00, 0x00, 0x76, 0xe7, 0xff, 0xff, 0x04, 0x00, 0x00, 0x00, 0x60, 0x00, 0x00, 0x00, 0x0c, 0x00, 0x00, 0x00, 0x08, 0x00, 0x0e, 0x00, 0x08, 0x00, 0x04, 0x00, 0x08, 0x00, 0x00, 0x00, 0x10, 0x00, 0x00, 0x00, 0x28, 0x00, 0x00, 0x00, 0x00, 0x00, 0x06, 0x00, 0x08, 0x00, 0x04, 0x00, 0x06, 0x00, 0x00, 0x00, 0x04, 0x00, 0x00, 0x00, 0x01, 0x00, 0x00, 0x00, 0xeb, 0x03, 0x00, 0x00, 0x0c, 0x00, 0x18, 0x00, 0x14, 0x00, 0x10, 0x00, 0x0c, 0x00, 0x04, 0x00, 0x0c, 0x00, 0x00, 0x00, 0xcd, 0xe0, 0x88, 0x34, 0xe6, 0x24, 0x9a, 0x37, 0x02, 0x00, 0x00, 0x00, 0x02, 0x00, 0x00, 0x00, 0x04, 0x00, 0x00, 0x00, 0x06, 0x00, 0x00, 0x00, 0x32, 0x2e, 0x32, 0x30, 0x2e, 0x30, 0x00, 0x00, 0xe2, 0xe7, 0xff, 0xff, 0x04, 0x00, 0x00, 0x00, 0x10, 0x00, 0x00, 0x00, 0x31, 0x2e, 0x31, 0x34, 0x2e, 0x30, 0x00, 0x00, 0x00, 0x00, 0x00, 0x00, 0x00, 0x00, 0x00, 0x00, 0x20, 0xd3, 0xff, 0xff, 0x24, 0xd3, 0xff, 0xff, 0x28, 0xd3, 0xff, 0xff, 0x2c, 0xd3, 0xff, 0xff, 0x30, 0xd3, 0xff, 0xff, 0x34, 0xd3, 0xff, 0xff, 0x38, 0xd3, 0xff, 0xff, 0x1a, 0xe8, 0xff, 0xff, 0x04, 0x00, 0x00, 0x00, 0xc0, 0x0b, 0x00, 0x00, 0xf0, 0x02, 0xfd, 0x0b, 0x15, 0xf9, 0xee, 0xd0, 0xc9, 0x0c, 0x27, 0x31, 0xeb, 0x49, 0x1f, 0x14, 0x11, 0xf1, 0xd6, 0x9b, 0x7f, 0x20, 0xb5, 0xed, 0xf0, 0x10, 0x08, 0x26, 0x08, 0x09, 0x17, 0xee, 0xd7, 0xed, 0x0e, 0x9b, 0x12, 0x09, 0x07, 0xc6, 0x00, 0xe1, 0x05, 0xe9, 0xe7, 0xbf, 0xfa, 0x03, 0xe2, 0x4a, 0xd6, 0xd6, 0xd5, 0x60, 0x1a, 0x38, 0x39, 0xd4, 0x10, 0xdb, 0xe9, 0xe1, 0x11, 0xca, 0x32, 0x23, 0x4f, 0xbf, 0x05, 0xef, 0xc9, 0x22, 0xe3, 0xce, 0xe8, 0xf6, 0xc1, 0xea, 0x12, 0xec, 0x13, 0x1e, 0x81, 0x1b, 0xf3, 0x02, 0xda, 0x16, 0x54, 0xd6, 0xdd, 0xe3, 0x4f, 0x02, 0xa5, 0x04, 0xff, 0x00, 0x08, 0x81, 0xb4, 0x5a, 0x4a, 0x07, 0x1f, 0xf7, 0xf8, 0x8e, 0x35, 0x06, 0xbc, 0x1e, 0xf9, 0x05, 0x08, 0x40, 0xcd, 0x1c, 0x13, 0xe8, 0x01, 0xcf, 0xf1, 0x9e, 0xe3, 0x35, 0xe9, 0x37, 0xef, 0xee, 0x4e, 0x77, 0xe1, 0x3f, 0x84, 0x74, 0xdb, 0x12, 0x09, 0x2e, 0xf7, 0xd5, 0x61, 0x12, 0xfb, 0x01, 0x20, 0x81, 0xbf, 0x00, 0x05, 0x4a, 0xdb, 0x02, 0x0b, 0x19, 0x0e, 0xfd, 0x65, 0xe4, 0x2d, 0x59, 0x06, 0xd4, 0x0a, 0xe0, 0x1a, 0x27, 0x3e, 0xf1, 0x21, 0xd9, 0x20, 0x1d, 0xdd, 0xf8, 0xd1, 0x29, 0xfd, 0x13, 0xfe, 0x96, 0xf8, 0x2c, 0x2d, 0xeb, 0x72, 0xec, 0xca, 0x4f, 0x0f, 0xd8, 0x38, 0x25, 0x08, 0xd0, 0x0e, 0x4d, 0xf4, 0xfd, 0x27, 0x7f, 0x10, 0x1d, 0x37, 0xd7, 0xc9, 0xa7, 0x2a, 0x9c, 0xb1, 0x12, 0xfd, 0xe7, 0x08, 0xfb, 0xf0, 0x30, 0x14, 0xb9, 0xff, 0xe6, 0x1a, 0xa5, 0x1b, 0x02, 0x01, 0xce, 0x1d, 0xf3, 0xe4, 0xc0, 0x1c, 0xe7, 0xfc, 0xdd, 0x13, 0x02, 0x0d, 0x0a, 0xc9, 0x23, 0xe2, 0x1b, 0xea, 0xfb, 0x2b, 0x1b, 0x81, 0xee, 0xbd, 0x2e, 0x11, 0x06, 0x47, 0xe3, 0x2f, 0x28, 0xc2, 0x04, 0x19, 0xef, 0x28, 0x1c, 0x00, 0xf9, 0x21, 0xee, 0x03, 0x20, 0x07, 0xf8, 0xef, 0x0e, 0x1a, 0xc0, 0x44, 0xbb, 0xcd, 0xd4, 0x8b, 0xfb, 0xeb, 0x05, 0xf4, 0x28, 0xc5, 0x26, 0x9b, 0x96, 0xf6, 0x1b, 0x18, 0x81, 0x11, 0xb8, 0x3b, 0x30, 0x0a, 0xdb, 0x2e, 0x39, 0x1f, 0xe8, 0xee, 0x0c, 0xea, 0xfc, 0x32, 0x1e, 0x1b, 0x62, 0xf0, 0xe6, 0xed, 0x17, 0xf8, 0x1f, 0x17, 0xd2, 0x33, 0x15, 0xda, 0xd1, 0x2d, 0x23, 0x17, 0x54, 0x0d, 0x81, 0x0b, 0xdb, 0xc8, 0xe1, 0x04, 0x74, 0x21, 0x3c, 0x2f, 0xd0, 0x00, 0xfb, 0xb6, 0xef, 0xb0, 0xbb, 0x39, 0x1d, 0x10, 0x1f, 0x25, 0x1a, 0xfb, 0xfe, 0x02, 0x01, 0x09, 0xf9, 0x23, 0xf3, 0xf7, 0xdf, 0xf4, 0x0d, 0x24, 0xbf, 0x06, 0xf0, 0x0e, 0xef, 0x40, 0x1a, 0xcb, 0xd4, 0x18, 0x09, 0xdf, 0x2a, 0x29, 0x1b, 0xf2, 0xe8, 0xed, 0x08, 0xde, 0x3e, 0x0c, 0x16, 0xf1, 0x3f, 0x36, 0x08, 0x19, 0xea, 0xf5, 0x90, 0x3f, 0x81, 0x8f, 0xfb, 0x0a, 0x08, 0x23, 0xf2, 0xce, 0x24, 0x02, 0xe8, 0xf9, 0xf6, 0x0a, 0xcb, 0xea, 0x09, 0xe5, 0x30, 0x3d, 0x37, 0x02, 0xb1, 0x05, 0xd4, 0x01, 0x02, 0xff, 0x1e, 0xfb, 0xf6, 0x07, 0xd4, 0xb8, 0xcc, 0xeb, 0xf4, 0x00, 0xc2, 0xe4, 0xe5, 0xd8, 0x1a, 0x0a, 0x81, 0x0f, 0x25, 0x22, 0xe9, 0x19, 0xf4, 0x44, 0xc6, 0x09, 0x15, 0xcb, 0x18, 0xe3, 0x14, 0x0a, 0x0c, 0xd5, 0x07, 0x0c, 0xff, 0xfa, 0xdb, 0x12, 0x2f, 0xee, 0xd3, 0xbf, 0xee, 0xc6, 0x00, 0x2b, 0x29, 0xe8, 0x36, 0x37, 0xda, 0xc2, 0x16, 0x15, 0x0a, 0xe8, 0x0d, 0x07, 0xf6, 0x17, 0x4e, 0xf5, 0x2d, 0x21, 0x48, 0x0e, 0xf4, 0x1d, 0x46, 0xc2, 0x2c, 0xce, 0xfe, 0xe2, 0xf2, 0xc2, 0x81, 0x07, 0xce, 0x2f, 0xf5, 0xe9, 0xd5, 0x9d, 0xf7, 0xf3, 0xf8, 0xd1, 0xa4, 0xfc, 0x07, 0xd7, 0x20, 0xd6, 0xe3, 0x09, 0x49, 0x47, 0x43, 0xe2, 0x09, 0xb1, 0xfd, 0xea, 0x29, 0xeb, 0xde, 0xe4, 0x0c, 0x1b, 0xb7, 0x34, 0x1f, 0x1a, 0x16, 0xd3, 0xf4, 0x08, 0x17, 0x07, 0x18, 0x4f, 0x0f, 0xef, 0xca, 0x07, 0xc2, 0xec, 0xf9, 0x81, 0x3b, 0xd5, 0xec, 0xd4, 0x65, 0x12, 0x1f, 0x09, 0x3d, 0x08, 0xe1, 0xfa, 0x0b, 0xf8, 0x0b, 0x08, 0x08, 0xe7, 0x06, 0xe7, 0x15, 0x42, 0xfa, 0x1d, 0x04, 0xff, 0x34, 0x01, 0xe9, 0xd4, 0x29, 0xf3, 0x81, 0x64, 0xde, 0xba, 0xd6, 0x21, 0xd6, 0xfd, 0xeb, 0x30, 0xf6, 0xfb, 0xfb, 0xf7, 0x33, 0xf9, 0x59, 0xe1, 0x05, 0xdd, 0xe6, 0xf5, 0xfe, 0xc1, 0x2e, 0xf6, 0x06, 0xec, 0x1a, 0xfe, 0xff, 0xc3, 0x81, 0x28, 0x48, 0x93, 0xda, 0xea, 0x23, 0xd7, 0xe6, 0xbd, 0xe6, 0x57, 0x40, 0xae, 0xeb, 0x3b, 0xde, 0x53, 0xed, 0xc5, 0x0c, 0x10, 0xa2, 0x22, 0xfe, 0x07, 0x53, 0xfb, 0xbc, 0xfe, 0xb9, 0x4d, 0xb5, 0xe5, 0xed, 0xb8, 0xf8, 0x7f, 0x25, 0x18, 0x18, 0xf9, 0xdb, 0x54, 0x36, 0xef, 0x1a, 0x29, 0xef, 0xbf, 0x0d, 0xef, 0xa5, 0xf5, 0xcc, 0xc9, 0xcc, 0xc3, 0x9a, 0xcf, 0xfe, 0x0e, 0xe5, 0x2e, 0x09, 0xdd, 0x35, 0xe5, 0x38, 0xf1, 0xee, 0xfd, 0xd6, 0xde, 0x06, 0x0c, 0xfc, 0xfc, 0xd9, 0x35, 0x0d, 0x06, 0xe4, 0x17, 0xd9, 0xf6, 0xdd, 0xe0, 0x27, 0x1f, 0xfb, 0x0c, 0x00, 0x1d, 0x02, 0x18, 0x16, 0x07, 0xfd, 0xde, 0x0b, 0xc9, 0x81, 0x01, 0xf2, 0xa0, 0xf1, 0x1c, 0xeb, 0xee, 0xef, 0x16, 0x00, 0xdf, 0x1e, 0x02, 0xfe, 0xf1, 0x1b, 0xdc, 0xfb, 0xd8, 0xde, 0x0e, 0xef, 0xfc, 0x01, 0x09, 0xe3, 0x04, 0x03, 0xeb, 0x10, 0x03, 0xe5, 0x00, 0xf1, 0x1f, 0x39, 0xf6, 0xd8, 0xee, 0x1e, 0xf1, 0x81, 0xe7, 0xec, 0xf5, 0xf9, 0xbc, 0x1d, 0xff, 0x08, 0xed, 0x03, 0xfc, 0x0f, 0x0b, 0xf3, 0x15, 0x09, 0xfa, 0x07, 0xed, 0x16, 0x02, 0x27, 0x10, 0xfb, 0xdd, 0xf4, 0xb4, 0x06, 0xe6, 0x16, 0xdb, 0x0e, 0x06, 0xf2, 0xf5, 0xe4, 0x1c, 0xe7, 0x05, 0xbb, 0xd8, 0xc5, 0x16, 0x14, 0x03, 0xf2, 0xe2, 0x10, 0xdc, 0xe8, 0x17, 0x7f, 0x23, 0x5d, 0x2f, 0xff, 0x37, 0x03, 0x06, 0x0f, 0x37, 0xf5, 0xef, 0xf4, 0x22, 0x05, 0x04, 0x1a, 0xe7, 0x39, 0xf8, 0x08, 0x0e, 0xcd, 0x02, 0xc4, 0xee, 0xb4, 0xcd, 0xdc, 0xf2, 0xe7, 0x0c, 0xd2, 0xdf, 0x3e, 0xd5, 0x0b, 0xbc, 0x17, 0x04, 0x19, 0x3b, 0xc6, 0xed, 0x22, 0xe2, 0xdf, 0x7f, 0xfb, 0xde, 0xe9, 0xcf, 0xe0, 0xd3, 0x01, 0xf8, 0xbf, 0xe6, 0xf9, 0x33, 0xed, 0x10, 0x4b, 0xee, 0x1d, 0xf0, 0xb8, 0xcc, 0xef, 0x22, 0x60, 0x14, 0x13, 0xf4, 0x14, 0x1c, 0xf9, 0x0e, 0xff, 0x12, 0xf5, 0xce, 0x18, 0x1f, 0xf6, 0xeb, 0xe9, 0x28, 0xe4, 0x66, 0xe4, 0xca, 0x28, 0x24, 0xe9, 0xd3, 0xd3, 0xc5, 0x41, 0x20, 0xd9, 0x5a, 0x07, 0x29, 0xe6, 0x1a, 0x08, 0x3b, 0xe8, 0x32, 0x03, 0x32, 0xf9, 0xf5, 0xe6, 0xe9, 0xb5, 0x3e, 0xe8, 0x15, 0xf4, 0x81, 0xe4, 0x03, 0x4a, 0x28, 0xea, 0xb8, 0xf4, 0x43, 0xd9, 0x42, 0x10, 0x96, 0xfd, 0x65, 0xd3, 0xb9, 0xa5, 0xe4, 0x11, 0xf9, 0x1b, 0x1a, 0x3a, 0xdd, 0x49, 0x0d, 0xe4, 0xed, 0x14, 0x30, 0xb9, 0x03, 0x36, 0xd3, 0xfc, 0xc5, 0xf2, 0x1a, 0x28, 0xbb, 0x62, 0xd8, 0x7f, 0x25, 0xf3, 0x02, 0xa3, 0x00, 0xfd, 0x3a, 0x13, 0xfb, 0x00, 0x01, 0xfc, 0xd9, 0x27, 0xd9, 0x89, 0x10, 0x01, 0xf0, 0x3e, 0x03, 0xef, 0xf1, 0xee, 0xfe, 0xe1, 0xef, 0x3e, 0x0c, 0xea, 0x11, 0x1b, 0x0c, 0x07, 0x03, 0x00, 0x22, 0x10, 0xeb, 0xda, 0x28, 0xe9, 0x03, 0x1d, 0xcc, 0x1f, 0x81, 0x1d, 0xf3, 0x35, 0x0b, 0xfc, 0xde, 0xd1, 0x01, 0x32, 0x31, 0x40, 0xfc, 0xbc, 0x29, 0xe7, 0xfd, 0x36, 0xf9, 0x15, 0xf5, 0x5e, 0xf7, 0x52, 0x14, 0xaf, 0x7f, 0x31, 0xfa, 0x0a, 0x02, 0x33, 0xcf, 0x48, 0xd6, 0xcb, 0x0d, 0x40, 0xc8, 0x0b, 0x59, 0xe3, 0x66, 0xcb, 0xd4, 0xfb, 0xdf, 0x6d, 0xeb, 0xe8, 0xe5, 0xf0, 0xcb, 0xef, 0xd9, 0xf4, 0xfe, 0x22, 0xbc, 0x27, 0xf8, 0xf7, 0x0f, 0x11, 0x30, 0xe5, 0x81, 0xe2, 0x05, 0x3e, 0xf5, 0xd5, 0x11, 0x02, 0x10, 0x05, 0x1d, 0x0b, 0x2e, 0xc2, 0x14, 0xe1, 0xab, 0x01, 0x09, 0xd7, 0x1c, 0x0a, 0x14, 0xee, 0xf2, 0xfe, 0xd7, 0xb2, 0x42, 0x1f, 0x3c, 0xdd, 0xa8, 0xf3, 0x0e, 0xd8, 0x2b, 0x01, 0x34, 0xd4, 0xfd, 0xbf, 0x37, 0xfd, 0xf6, 0x09, 0xbd, 0x51, 0x73, 0x02, 0xae, 0x23, 0xfd, 0x5e, 0x81, 0xb3, 0xd1, 0x27, 0x0a, 0x76, 0xed, 0x27, 0xd7, 0x19, 0xff, 0x3b, 0xe2, 0xe8, 0x39, 0x1e, 0x02, 0x28, 0xc1, 0xef, 0xea, 0x29, 0xab, 0xd9, 0x1e, 0x91, 0x04, 0xe7, 0x32, 0x4e, 0x30, 0xbe, 0x0c, 0x7f, 0x34, 0x56, 0xe8, 0xeb, 0x6c, 0x0c, 0xcc, 0xf3, 0xfd, 0x64, 0xfb, 0x99, 0x23, 0x00, 0x1d, 0x36, 0x24, 0x0c, 0xff, 0xb0, 0x45, 0x4d, 0xc8, 0xee, 0xc3, 0xef, 0x02, 0xbe, 0x35, 0xe8, 0xed, 0x07, 0xd8, 0xbc, 0x43, 0xae, 0x27, 0xd4, 0xc7, 0xe0, 0xc9, 0x7e, 0x3a, 0x3c, 0xee, 0x22, 0xff, 0xb6, 0xfe, 0x00, 0x33, 0x9b, 0x42, 0x8f, 0xe3, 0x20, 0x9a, 0xd9, 0x9e, 0x06, 0xcc, 0xd4, 0xd0, 0x93, 0xe6, 0xbf, 0xd9, 0x22, 0xb7, 0x6e, 0xfd, 0x6e, 0x3a, 0x05, 0xcd, 0x4c, 0x1a, 0xe1, 0x0c, 0xef, 0x81, 0xd6, 0x3c, 0x79, 0x57, 0x5b, 0x36, 0xd9, 0xc1, 0x0c, 0xf8, 0xe8, 0x46, 0x7f, 0x58, 0x05, 0x1b, 0x23, 0xe5, 0x3c, 0xb8, 0xd2, 0xca, 0x06, 0xfa, 0xea, 0xf2, 0x03, 0x2b, 0xd1, 0xe5, 0xf1, 0x0a, 0xdb, 0x40, 0x1c, 0xe8, 0xfd, 0x30, 0xee, 0xfc, 0x0c, 0x10, 0x2a, 0xd3, 0xd3, 0xe3, 0xde, 0x76, 0xfc, 0xbe, 0xc8, 0x04, 0xfd, 0xec, 0xc8, 0x1c, 0x2d, 0x13, 0xe4, 0x30, 0x44, 0xe1, 0xfd, 0x11, 0x16, 0xfe, 0xee, 0x05, 0xf4, 0x0a, 0xff, 0x13, 0x09, 0xc5, 0x10, 0x07, 0xe6, 0xee, 0xeb, 0xee, 0xfe, 0xfb, 0x1f, 0xfe, 0xd4, 0x16, 0x06, 0xde, 0x81, 0xf9, 0xf5, 0x11, 0xd6, 0x3b, 0xdc, 0xbf, 0xeb, 0x24, 0x20, 0x0c, 0x38, 0xde, 0xef, 0x81, 0x07, 0x27, 0xcd, 0x10, 0xce, 0xe8, 0x1c, 0xde, 0x57, 0x3b, 0x14, 0x26, 0xf0, 0xd1, 0x5c, 0x2c, 0xd3, 0x8a, 0xcb, 0x8c, 0x4e, 0xd6, 0xe6, 0x29, 0x1d, 0x31, 0x7f, 0x29, 0x52, 0xf7, 0x2d, 0xc9, 0xb2, 0x1f, 0xaf, 0x53, 0x0c, 0x04, 0xfe, 0x2b, 0x1f, 0x20, 0xca, 0xef, 0x53, 0x41, 0xf5, 0xdf, 0x38, 0xfb, 0xf8, 0x4e, 0xf2, 0xee, 0xf9, 0x2a, 0xff, 0xe3, 0x21, 0xfd, 0x07, 0xda, 0xfb, 0x50, 0x30, 0x2f, 0x34, 0xf6, 0x00, 0xfc, 0x0c, 0x21, 0xfe, 0x12, 0xff, 0xf8, 0xcf, 0xd2, 0x54, 0xfa, 0xd3, 0x90, 0x2a, 0xe0, 0x0e, 0x0d, 0xf6, 0x04, 0x81, 0x15, 0x2e, 0x10, 0xf6, 0xdd, 0xcb, 0x9f, 0x20, 0x47, 0x21, 0xf6, 0x19, 0x38, 0xfe, 0x81, 0xfa, 0xe2, 0xf3, 0x1f, 0xfe, 0x21, 0xda, 0x04, 0x2a, 0xf2, 0xfc, 0xec, 0x02, 0xe7, 0xdb, 0x24, 0x12, 0xed, 0xcf, 0xfa, 0xd9, 0xd9, 0x3e, 0x00, 0xe6, 0xc5, 0xba, 0x1d, 0xe9, 0x04, 0x13, 0x2e, 0x0e, 0x1a, 0x2b, 0xe7, 0xcf, 0xda, 0x3d, 0xef, 0x2f, 0x50, 0xcf, 0xb9, 0x26, 0x1c, 0xff, 0xf4, 0xe3, 0xe3, 0xd9, 0xf9, 0x29, 0x19, 0x36, 0xed, 0x21, 0xff, 0xd9, 0x08, 0x0a, 0x29, 0x17, 0x0b, 0x0d, 0x13, 0xc9, 0xf2, 0x27, 0x3a, 0xff, 0x81, 0xdc, 0x09, 0x06, 0x0b, 0xb9, 0x08, 0x0c, 0xf9, 0x08, 0x02, 0xf3, 0x01, 0xf9, 0x36, 0x07, 0x26, 0xfe, 0xc7, 0xb7, 0xe9, 0x1e, 0x25, 0xf8, 0x27, 0xf3, 0xf5, 0xd9, 0x0d, 0x7f, 0x35, 0xd3, 0x1b, 0xfc, 0x0d, 0xdf, 0x23, 0xf9, 0xda, 0x10, 0x3e, 0xe4, 0x12, 0xcd, 0x25, 0xfb, 0xf8, 0xab, 0xda, 0x1a, 0x21, 0x2e, 0xf8, 0x05, 0xc5, 0x0b, 0x9f, 0x46, 0x18, 0x28, 0x63, 0x34, 0x55, 0xb4, 0xf1, 0x1c, 0xa8, 0xcf, 0x96, 0x05, 0x14, 0x19, 0xfe, 0xd1, 0x08, 0x00, 0x40, 0x5e, 0xe5, 0x6d, 0x0b, 0xff, 0xdd, 0x2a, 0x2b, 0xec, 0x10, 0xfe, 0x03, 0x00, 0xf4, 0x12, 0x64, 0xbc, 0xca, 0xbe, 0xb6, 0x3b, 0x38, 0x63, 0x5b, 0xec, 0x81, 0xfd, 0x08, 0x5c, 0x2a, 0x04, 0x18, 0xc8, 0xed, 0x07, 0x0b, 0xf5, 0xf7, 0xb9, 0xe8, 0xd7, 0xe6, 0xef, 0xee, 0x81, 0xea, 0xee, 0xdc, 0x18, 0xe9, 0x32, 0x0f, 0x2b, 0x05, 0x0c, 0x01, 0xce, 0x26, 0xef, 0xbf, 0xe7, 0xf4, 0x12, 0xf9, 0xfa, 0x06, 0xfe, 0x2f, 0xe9, 0x21, 0xf2, 0xfa, 0x01, 0x01, 0x5f, 0x37, 0xb6, 0xae, 0x47, 0x59, 0xf5, 0x23, 0xab, 0xb7, 0x27, 0x25, 0x0d, 0x1a, 0x34, 0xf2, 0xe3, 0x0c, 0x49, 0xf6, 0xf1, 0xa7, 0x42, 0xff, 0x0f, 0xf8, 0xf0, 0xc2, 0xfc, 0xf8, 0x25, 0x2f, 0xe2, 0x81, 0x74, 0x3f, 0x02, 0x0c, 0x8f, 0x71, 0x91, 0x77, 0xfb, 0x1e, 0xf8, 0xf4, 0x04, 0x04, 0xfd, 0xfe, 0xdb, 0x15, 0x32, 0xa6, 0xe0, 0xb4, 0xde, 0x0f, 0x19, 0xca, 0xc7, 0x04, 0x3c, 0x0d, 0xf9, 0xe2, 0x36, 0x81, 0xac, 0x69, 0xea, 0x9d, 0x5b, 0x91, 0xad, 0xe2, 0x0e, 0x00, 0xc3, 0x17, 0x14, 0x19, 0xf4, 0xf8, 0x07, 0x38, 0xf7, 0x35, 0x1d, 0x37, 0x01, 0xfa, 0xfa, 0xed, 0x5a, 0xf4, 0x15, 0xce, 0xdb, 0xef, 0x6a, 0x3b, 0xb5, 0xb4, 0x1d, 0x2d, 0x81, 0x0a, 0xb1, 0xe8, 0x02, 0x30, 0x19, 0xd0, 0xf4, 0x0d, 0x2b, 0x00, 0x4b, 0x08, 0x10, 0x03, 0xd0, 0x04, 0x11, 0x10, 0xeb, 0xfa, 0x31, 0xfc, 0x2d, 0xc8, 0x85, 0x05, 0xe0, 0x2a, 0xc3, 0x13, 0xe5, 0x05, 0x08, 0x43, 0xf2, 0xe9, 0x45, 0x2f, 0xca, 0x1a, 0x81, 0xcf, 0xf1, 0xf5, 0x0b, 0xe9, 0x0e, 0xf0, 0x3c, 0x3c, 0x15, 0xc8, 0xf9, 0x06, 0xdf, 0xb7, 0x00, 0x43, 0xe1, 0x1c, 0xa6, 0x8e, 0x0a, 0x2f, 0xff, 0xe1, 0x03, 0xbb, 0x76, 0xe9, 0xfb, 0x23, 0xce, 0xe9, 0x8d, 0x28, 0x08, 0x3c, 0x25, 0x02, 0x35, 0xd7, 0x32, 0x32, 0x23, 0xe6, 0xc5, 0x28, 0x47, 0xe4, 0xdd, 0xe6, 0x44, 0xf0, 0xcc, 0x08, 0x18, 0xf7, 0xfa, 0x2e, 0xc8, 0xeb, 0x7f, 0xdb, 0x49, 0x48, 0x0b, 0xa3, 0xe4, 0x13, 0xfd, 0xcc, 0xe9, 0xf1, 0xfa, 0x1b, 0x18, 0xe7, 0x05, 0xac, 0x39, 0x26, 0x0e, 0xe2, 0x5f, 0x5c, 0xb7, 0x1d, 0x4c, 0xfd, 0xf4, 0xce, 0xf6, 0xea, 0x74, 0xb7, 0xf7, 0x25, 0xc5, 0x22, 0xe8, 0xcc, 0x18, 0xdf, 0x15, 0x5a, 0xe6, 0xe7, 0x2f, 0x15, 0x19, 0xd9, 0x15, 0xf2, 0xcf, 0x98, 0x1f, 0x01, 0xb1, 0x42, 0x1f, 0x0b, 0x42, 0x25, 0x81, 0x00, 0x21, 0x3f, 0xb7, 0xeb, 0xd7, 0x1c, 0xc5, 0xe1, 0x3d, 0xfd, 0xde, 0xda, 0x3a, 0xda, 0x1f, 0xc4, 0xec, 0x03, 0xf4, 0x10, 0xc9, 0xfb, 0xaa, 0x2a, 0x18, 0x81, 0x10, 0x36, 0xdb, 0xf9, 0x04, 0xd6, 0xf7, 0x05, 0x07, 0xe4, 0x00, 0x17, 0x16, 0x15, 0xf8, 0x34, 0x18, 0x06, 0xe8, 0x18, 0xd7, 0xa7, 0x64, 0x08, 0x43, 0xdb, 0xfa, 0x24, 0x2c, 0x0f, 0x0c, 0xe6, 0x0b, 0xf8, 0x15, 0xde, 0x1a, 0xff, 0x0b, 0x1b, 0xb4, 0x44, 0x2a, 0xf8, 0x1b, 0x0d, 0xf9, 0x2c, 0x0a, 0x1f, 0xcb, 0x17, 0x05, 0x2d, 0x0a, 0xea, 0x12, 0x0f, 0x09, 0x68, 0xf5, 0xfd, 0xf5, 0xfc, 0x01, 0xf2, 0x00, 0x0e, 0x81, 0x17, 0xe7, 0x0b, 0xe3, 0xdb, 0x00, 0xbe, 0x33, 0xe5, 0x1c, 0xe2, 0x27, 0x10, 0x19, 0x48, 0x1f, 0xff, 0xde, 0x29, 0x14, 0xef, 0x38, 0x1a, 0x28, 0xec, 0x18, 0x7f, 0x33, 0xc7, 0x08, 0x06, 0xc9, 0x0b, 0xf5, 0x20, 0x13, 0x03, 0xca, 0xdc, 0x26, 0x2b, 0x1b, 0x70, 0xf6, 0x05, 0xdb, 0xc4, 0x1c, 0x11, 0x06, 0x50, 0x1c, 0xce, 0xda, 0xf4, 0xed, 0x15, 0x04, 0x81, 0x01, 0xd5, 0x3b, 0x26, 0x25, 0xe9, 0x08, 0x0f, 0xf6, 0x15, 0x05, 0xea, 0xe0, 0x48, 0x77, 0x30, 0xd0, 0x45, 0x04, 0xd4, 0xf8, 0xac, 0x03, 0xc4, 0xf3, 0x26, 0xc2, 0x3c, 0xf7, 0x10, 0x06, 0xf5, 0x3d, 0xd2, 0xbe, 0x34, 0xd6, 0x4e, 0x24, 0x2a, 0x14, 0xf0, 0xca, 0x07, 0x10, 0x02, 0x90, 0xb9, 0xe6, 0xd3, 0x31, 0xf0, 0x49, 0xea, 0xc5, 0x17, 0x2d, 0x0b, 0xef, 0xe8, 0xcb, 0x60, 0x3d, 0xdd, 0x0c, 0x17, 0xfb, 0xe0, 0x07, 0x3b, 0xb2, 0x0a, 0x18, 0xe9, 0x15, 0x4c, 0xfb, 0x51, 0xa7, 0x81, 0x26, 0xac, 0x10, 0xdd, 0x06, 0x2b, 0xcf, 0xf9, 0x7d, 0xd5, 0xa8, 0x14, 0x62, 0x81, 0xd6, 0x84, 0x17, 0x45, 0xf7, 0x3d, 0xb2, 0x48, 0xc7, 0x38, 0xe8, 0xfd, 0xee, 0xf7, 0xb2, 0xb1, 0x29, 0xdd, 0xf3, 0x75, 0x0f, 0x21, 0x33, 0x0d, 0xe6, 0xd8, 0x20, 0xf8, 0x5a, 0xdf, 0xf1, 0xf8, 0x1c, 0xb9, 0x98, 0x8b, 0xeb, 0xb7, 0x04, 0x92, 0x04, 0x00, 0xd3, 0x1a, 0xd2, 0xe7, 0xd3, 0xd1, 0xc6, 0x14, 0xa2, 0x95, 0x4e, 0xfc, 0x81, 0xba, 0x38, 0x2a, 0xfd, 0xfa, 0xa2, 0x01, 0x03, 0x12, 0xd4, 0x0b, 0x12, 0xbe, 0x1a, 0x3f, 0xcf, 0x05, 0xd5, 0xb5, 0x3d, 0x4a, 0x11, 0x21, 0xce, 0xfa, 0xa4, 0xae, 0xd1, 0xfe, 0xfc, 0xbb, 0xaf, 0xfc, 0x06, 0x20, 0x2b, 0xc7, 0x56, 0x34, 0xf7, 0x38, 0xd1, 0x24, 0x56, 0xc7, 0xd6, 0x73, 0x19, 0x3b, 0xc7, 0x59, 0x03, 0xfb, 0x2c, 0xf4, 0x06, 0xf5, 0x05, 0x35, 0xfc, 0x0a, 0x08, 0x9b, 0x0b, 0x18, 0xe8, 0xee, 0xbf, 0xce, 0x49, 0x03, 0x04, 0x81, 0xaf, 0xf6, 0xe3, 0x00, 0x95, 0x0a, 0x08, 0x08, 0xca, 0xfc, 0xbc, 0x0d, 0x16, 0x11, 0xbe, 0xe6, 0xd0, 0x18, 0x2f, 0xef, 0xdf, 0x2b, 0x03, 0x17, 0x2a, 0x08, 0x02, 0xd9, 0x29, 0x09, 0x0d, 0x81, 0x17, 0xd0, 0x1f, 0xd8, 0x19, 0x5a, 0xf1, 0x3b, 0x4f, 0x2d, 0x02, 0x35, 0xfb, 0x00, 0x23, 0xd8, 0xea, 0xef, 0xe4, 0xe7, 0xc3, 0x07, 0xf6, 0x29, 0xfd, 0x18, 0x11, 0xfb, 0x0b, 0xc6, 0xfb, 0xe4, 0xee, 0xec, 0xf1, 0x21, 0x2f, 0xfe, 0xf3, 0xf5, 0xeb, 0xdd, 0x5d, 0xfd, 0xfa, 0x4c, 0xf5, 0x91, 0x64, 0x81, 0xbb, 0xa1, 0x0f, 0xd4, 0xc7, 0xf4, 0x3b, 0x07, 0x13, 0xff, 0x04, 0x15, 0xe7, 0x47, 0x28, 0x19, 0xc7, 0x33, 0xfb, 0x20, 0xdf, 0xc5, 0x2d, 0x3f, 0xa2, 0xdf, 0xae, 0x28, 0x41, 0xed, 0x09, 0xe4, 0x3e, 0x16, 0x03, 0x2a, 0x0e, 0xe4, 0xe8, 0x6d, 0x4d, 0xf2, 0x10, 0xf8, 0x21, 0x17, 0xec, 0x2a, 0xc8, 0xfe, 0xdc, 0x36, 0xd6, 0xb4, 0x2f, 0x15, 0x14, 0xfc, 0xc6, 0x81, 0xf8, 0x2c, 0x14, 0x1a, 0x22, 0xdc, 0x81, 0xed, 0xfe, 0xf2, 0x35, 0xc5, 0x1d, 0xfe, 0x0e, 0x24, 0x42, 0x1e, 0x26, 0xc1, 0xfe, 0x36, 0x07, 0x1c, 0x32, 0x26, 0xd5, 0x25, 0xfc, 0x71, 0x23, 0xd8, 0xce, 0x1c, 0xc4, 0x1a, 0xdf, 0xeb, 0x61, 0xcb, 0xe1, 0x86, 0x67, 0x1b, 0x10, 0x1e, 0xbf, 0xba, 0xdc, 0x3b, 0x44, 0x1f, 0x1b, 0x05, 0x03, 0x16, 0xf2, 0xc6, 0x01, 0xe6, 0xcc, 0x44, 0xdc, 0x81, 0x2a, 0x28, 0x9f, 0xea, 0xd7, 0xc9, 0x02, 0x1d, 0x1b, 0xfc, 0xd7, 0x26, 0x67, 0xf7, 0xf3, 0x21, 0x16, 0x04, 0xdf, 0x12, 0xfb, 0xda, 0xfe, 0xf3, 0x16, 0xed, 0x03, 0xcb, 0xd7, 0xf2, 0xee, 0x0c, 0xfb, 0x11, 0xf4, 0x0a, 0xff, 0x53, 0x35, 0xce, 0x66, 0x01, 0xeb, 0xde, 0xfd, 0x4c, 0xc4, 0x03, 0xf9, 0x56, 0x1c, 0xfb, 0xf7, 0xfe, 0x06, 0x8b, 0x19, 0xc8, 0xb4, 0x11, 0x1f, 0xbe, 0x38, 0x9b, 0xd3, 0xc2, 0xf9, 0xd1, 0xee, 0x4b, 0x0a, 0xf7, 0x02, 0xff, 0xfb, 0xdf, 0x07, 0x7f, 0x24, 0xc8, 0x14, 0x9c, 0xfd, 0x05, 0x2d, 0xed, 0x05, 0x1d, 0x04, 0x07, 0x08, 0x81, 0x2a, 0x0d, 0xd2, 0xe9, 0xfe, 0xf8, 0x12, 0xe0, 0x11, 0x18, 0x17, 0x60, 0x49, 0xc1, 0x9d, 0xea, 0xbe, 0xed, 0x3b, 0xe3, 0x9a, 0xef, 0xae, 0x0c, 0x2a, 0x30, 0xb3, 0x59, 0x08, 0xfd, 0x1f, 0xdc, 0x43, 0xd7, 0xf0, 0xc4, 0x28, 0x11, 0x47, 0x16, 0x14, 0xbc, 0xe8, 0xa7, 0x07, 0x4a, 0x03, 0xc3, 0xda, 0x4d, 0xe0, 0xb0, 0x36, 0x09, 0x00, 0x0c, 0xe1, 0x27, 0x05, 0x10, 0xfb, 0x0d, 0xf2, 0x2f, 0xd9, 0x11, 0x03, 0xa3, 0x0b, 0x31, 0x21, 0x0c, 0x25, 0x39, 0x0e, 0xd5, 0xc1, 0x81, 0xc9, 0x04, 0x24, 0x2a, 0xb3, 0x05, 0xff, 0x50, 0xe1, 0xe9, 0xf1, 0xfa, 0x81, 0x01, 0x77, 0x25, 0x06, 0xe1, 0x5e, 0xfb, 0xcd, 0xe3, 0xfd, 0x00, 0x27, 0x09, 0x0a, 0xea, 0x07, 0x0a, 0xfc, 0x13, 0xd1, 0xd6, 0x09, 0xdd, 0x87, 0x03, 0xef, 0xb9, 0x32, 0x20, 0xeb, 0x30, 0x06, 0xf1, 0xe6, 0xb3, 0x12, 0xb4, 0x00, 0xee, 0x0f, 0x03, 0xd3, 0x48, 0xc0, 0x28, 0x59, 0x34, 0xea, 0xf7, 0x87, 0xe2, 0x31, 0x0c, 0xd5, 0xe0, 0xce, 0x2e, 0xe4, 0x11, 0xef, 0x2e, 0x65, 0x0e, 0x09, 0x4b, 0x0d, 0x32, 0xf9, 0xf9, 0xfa, 0xc2, 0x10, 0x14, 0xa3, 0x03, 0x2b, 0x93, 0x46, 0xc8, 0xf3, 0xb8, 0xb0, 0x17, 0xd9, 0x7f, 0xd7, 0xb2, 0x70, 0x89, 0x07, 0xd0, 0xd2, 0xf7, 0xc4, 0x4f, 0x22, 0x5f, 0x02, 0xef, 0x2f, 0xaa, 0x1f, 0xf9, 0xdb, 0x4e, 0x32, 0x19, 0x00, 0x19, 0x12, 0x11, 0x51, 0xfa, 0x04, 0x01, 0xf9, 0x1c, 0x09, 0xc3, 0xbc, 0xc1, 0xdf, 0x0f, 0x0c, 0x3c, 0x00, 0x81, 0xef, 0xe9, 0x45, 0xb7, 0xc5, 0x14, 0xcc, 0xdb, 0x7f, 0x01, 0xe6, 0x00, 0xe0, 0xc1, 0x24, 0x54, 0x1b, 0x27, 0xe6, 0x20, 0x32, 0x0d, 0x0a, 0xf2, 0x01, 0xf8, 0x16, 0x27, 0xd4, 0xad, 0x0b, 0xbc, 0x06, 0x05, 0x0e, 0x1f, 0x0b, 0x06, 0x12, 0xdc, 0xe4, 0x32, 0xf0, 0x08, 0x00, 0xf9, 0xfb, 0xe8, 0x0a, 0x01, 0x11, 0xc6, 0xd2, 0xec, 0x0c, 0xf3, 0x06, 0x04, 0x16, 0x01, 0xf7, 0x07, 0xbb, 0x1d, 0xcd, 0xae, 0x15, 0x01, 0xe4, 0x0b, 0x0b, 0xfb, 0xf3, 0xe7, 0xd2, 0x23, 0xe5, 0xef, 0x0b, 0x07, 0xfb, 0xfe, 0xf7, 0x18, 0xfe, 0x00, 0x30, 0xff, 0x12, 0xde, 0x39, 0x0d, 0x05, 0x0b, 0xc3, 0xe8, 0x81, 0x4c, 0x11, 0x22, 0x06, 0xfa, 0x60, 0x35, 0xf5, 0x15, 0xf6, 0x89, 0xdf, 0x0d, 0x19, 0x03, 0xf1, 0x28, 0x01, 0x54, 0x27, 0xf3, 0xf2, 0x04, 0x03, 0x46, 0xd0, 0xed, 0x23, 0x81, 0x04, 0x1a, 0x00, 0xd3, 0x39, 0x3a, 0xfc, 0xf0, 0xed, 0x1a, 0xe3, 0xf0, 0x0d, 0xfe, 0x0b, 0xf0, 0xec, 0xaa, 0xfd, 0xf1, 0xe0, 0xd1, 0x08, 0xe6, 0xf3, 0xff, 0xff, 0x04, 0x00, 0x00, 0x00, 0x00, 0x01, 0x00, 0x00, 0x62, 0xfe, 0xff, 0xff, 0xac, 0xfd, 0xff, 0xff, 0x34, 0xfe, 0xff, 0xff, 0xd0, 0xfb, 0xff, 0xff, 0x24, 0xfe, 0xff, 0xff, 0x83, 0xfd, 0xff, 0xff, 0xd8, 0xfd, 0xff, 0xff, 0x6d, 0xfd, 0xff, 0xff, 0x20, 0xfd, 0xff, 0xff, 0xb9, 0xfe, 0xff, 0xff, 0xd4, 0xfb, 0xff, 0xff, 0x95, 0x00, 0x00, 0x00, 0x0b, 0xfb, 0xff, 0xff, 0x6e, 0xfe, 0xff, 0xff, 0x76, 0xfd, 0xff, 0xff, 0x1a, 0xff, 0xff, 0xff, 0x61, 0xff, 0xff, 0xff, 0x44, 0xfe, 0xff, 0xff, 0xb4, 0xfd, 0xff, 0xff, 0xbd, 0xfd, 0xff, 0xff, 0x39, 0xfd, 0xff, 0xff, 0xdb, 0xfd, 0xff, 0xff, 0xa8, 0xfc, 0xff, 0xff, 0x01, 0xff, 0xff, 0xff, 0x12, 0xfc, 0xff, 0xff, 0x01, 0xff, 0xff, 0xff, 0x26, 0xfb, 0xff, 0xff, 0xa2, 0xfd, 0xff, 0xff, 0x38, 0xfd, 0xff, 0xff, 0x19, 0xff, 0xff, 0xff, 0x81, 0xfe, 0xff, 0xff, 0x2e, 0xfe, 0xff, 0xff, 0xe6, 0xfd, 0xff, 0xff, 0x3d, 0xff, 0xff, 0xff, 0x81, 0xfa, 0xff, 0xff, 0xd0, 0xff, 0xff, 0xff, 0xfb, 0xfc, 0xff, 0xff, 0xdb, 0xf9, 0xff, 0xff, 0x3d, 0xfd, 0xff, 0xff, 0x70, 0xf8, 0xff, 0xff, 0xbc, 0xf8, 0xff, 0xff, 0x0e, 0xfe, 0xff, 0xff, 0x1d, 0xfc, 0xff, 0xff, 0x55, 0xfd, 0xff, 0xff, 0x50, 0xfd, 0xff, 0xff, 0x8f, 0xfe, 0xff, 0xff, 0x5e, 0xfd, 0xff, 0xff, 0x1b, 0xfd, 0xff, 0xff, 0xd9, 0xfe, 0xff, 0xff, 0x33, 0xf8, 0xff, 0xff, 0xf6, 0xff, 0xff, 0xff, 0x65, 0xfa, 0xff, 0xff, 0x1a, 0xfe, 0xff, 0xff, 0xa3, 0xfe, 0xff, 0xff, 0x5c, 0x00, 0x00, 0x00, 0x52, 0xf8, 0xff, 0xff, 0xa9, 0xfd, 0xff, 0xff, 0x76, 0xfe, 0xff, 0xff, 0xff, 0xfe, 0xff, 0xff, 0xc5, 0xfb, 0xff, 0xff, 0x56, 0xfb, 0xff, 0xff, 0x13, 0xfc, 0xff, 0xff, 0x44, 0xfe, 0xff, 0xff, 0x5a, 0xfe, 0xff, 0xff, 0xf2, 0xf4, 0xff, 0xff, 0x04, 0x00, 0x00, 0x00, 0x00, 0x08, 0x00, 0x00, 0xe5, 0x1c, 0xeb, 0xd9, 0x37, 0x8e, 0xf1, 0x0a, 0xda, 0xdb, 0xa1, 0x17, 0xd7, 0xf7, 0xed, 0x03, 0xfb, 0xcc, 0xde, 0x00, 0x5d, 0x1a, 0x0e, 0xee, 0x1c, 0x1e, 0xee, 0x0c, 0x16, 0x02, 0x31, 0x20, 0x33, 0x08, 0x17, 0xe6, 0x7f, 0x19, 0x1b, 0xe0, 0x08, 0x11, 0xfc, 0x36, 0x0a, 0xf4, 0x2c, 0xdb, 0xf5, 0xc8, 0xf9, 0xd0, 0xaf, 0x06, 0xf5, 0xad, 0xff, 0xf1, 0xf3, 0xfc, 0x26, 0x0d, 0x30, 0xb9, 0xee, 0x0e, 0x08, 0xf7, 0xc4, 0x30, 0xf7, 0x14, 0xf8, 0xd8, 0x90, 0x04, 0x8e, 0x01, 0xef, 0xe2, 0x0a, 0x04, 0xf2, 0x01, 0x3a, 0x0d, 0xf9, 0x10, 0xe1, 0x07, 0x10, 0x02, 0x27, 0xe5, 0x18, 0xfa, 0x24, 0x0d, 0xfc, 0xf6, 0xf3, 0xdf, 0x26, 0xdf, 0xfe, 0xff, 0xe5, 0xe8, 0x06, 0x03, 0xed, 0xf9, 0x0b, 0xbe, 0xff, 0xd5, 0xdc, 0x09, 0x05, 0xba, 0xfb, 0xff, 0xfd, 0xff, 0x02, 0x81, 0x01, 0xf0, 0x16, 0xf8, 0xff, 0x11, 0xf0, 0xe8, 0x04, 0x11, 0xf3, 0x08, 0x2a, 0xd5, 0x76, 0x2a, 0xfc, 0x07, 0x1d, 0x0b, 0x01, 0xf6, 0xf2, 0xc8, 0xfc, 0xec, 0x16, 0x0f, 0x0b, 0x8f, 0xf3, 0x02, 0xdd, 0xe4, 0xe5, 0x0e, 0xfe, 0x05, 0xd6, 0x11, 0x0b, 0x1e, 0x12, 0xe9, 0x0c, 0x37, 0xfc, 0x01, 0xb8, 0x46, 0xf8, 0x7f, 0xff, 0x1e, 0xdb, 0xfe, 0xf7, 0xa4, 0x0f, 0xf2, 0xd1, 0x00, 0xb9, 0x81, 0xe8, 0x4f, 0x04, 0x06, 0xfa, 0xfe, 0x01, 0x14, 0xf5, 0x00, 0x00, 0x05, 0x08, 0x00, 0xbf, 0xf8, 0x0e, 0x03, 0x05, 0x04, 0xfe, 0x00, 0xf2, 0xfe, 0xef, 0x08, 0x01, 0x02, 0xfc, 0x05, 0x0d, 0xff, 0xd6, 0x00, 0xed, 0xef, 0xfb, 0x04, 0xe0, 0xb8, 0xf6, 0xff, 0x00, 0xfd, 0x09, 0xf8, 0xee, 0xf6, 0x0d, 0x0b, 0x02, 0xf3, 0xfb, 0xcb, 0x11, 0xfa, 0xfe, 0x81, 0xfa, 0x03, 0x03, 0xfd, 0x10, 0x21, 0xfd, 0x08, 0x03, 0xf0, 0xfe, 0xfe, 0xfd, 0x04, 0xfe, 0xf2, 0x07, 0xff, 0x2f, 0xfb, 0xcc, 0xf3, 0x00, 0x01, 0x03, 0x05, 0x06, 0x03, 0xe1, 0xf0, 0x00, 0x0b, 0x0d, 0x04, 0x00, 0xef, 0xd7, 0xff, 0xe5, 0xef, 0xd2, 0xfe, 0x03, 0x00, 0xe6, 0xb0, 0xe9, 0x00, 0xfe, 0xee, 0x02, 0x0f, 0xfd, 0xfc, 0xfc, 0x06, 0xfa, 0x09, 0x02, 0xd5, 0x09, 0xff, 0xf9, 0x81, 0xfe, 0x01, 0xf8, 0x04, 0xfc, 0x53, 0xfb, 0x13, 0xd8, 0x08, 0xf3, 0xb2, 0xfe, 0xf8, 0xcb, 0xc1, 0x23, 0xdb, 0xfe, 0xff, 0x32, 0xc0, 0xee, 0xe3, 0xc3, 0xf2, 0xd6, 0x0c, 0x21, 0xc1, 0x12, 0xf8, 0x40, 0x09, 0xd8, 0xe0, 0xfb, 0xe8, 0x15, 0xf2, 0xc5, 0xfc, 0xf6, 0xd1, 0xf6, 0xc7, 0x81, 0xb5, 0xfa, 0x2a, 0xbb, 0x34, 0xf1, 0x08, 0xfa, 0xf2, 0xc7, 0xb6, 0xdf, 0xb4, 0x16, 0x02, 0xe2, 0xec, 0x11, 0xc4, 0x36, 0x01, 0x1d, 0x58, 0xc4, 0x10, 0x00, 0xec, 0xf4, 0xff, 0x02, 0xca, 0xfe, 0xee, 0x04, 0x00, 0x3a, 0xfa, 0xa7, 0xfa, 0x01, 0x01, 0xfb, 0xf9, 0x00, 0xfb, 0x07, 0x08, 0xf8, 0xf0, 0x09, 0xfd, 0x07, 0xef, 0xdc, 0x00, 0x08, 0xfd, 0x04, 0xfa, 0x03, 0x01, 0x1c, 0xd4, 0xfc, 0xdd, 0xf3, 0xfd, 0x00, 0x13, 0xfd, 0xf6, 0x02, 0xf7, 0xf7, 0xb6, 0x0d, 0xd6, 0xff, 0xf8, 0xff, 0x81, 0xe8, 0x03, 0xfd, 0xee, 0xfa, 0x64, 0x0c, 0x0b, 0xed, 0x0c, 0x0d, 0x05, 0xfc, 0x11, 0x09, 0x0e, 0xef, 0xf8, 0xf1, 0x04, 0xd0, 0x0e, 0xfd, 0xfc, 0x00, 0x02, 0x02, 0xe8, 0x16, 0x00, 0x04, 0xf7, 0xeb, 0xfc, 0x0d, 0xe3, 0x1b, 0x04, 0x0b, 0x04, 0x1a, 0x0a, 0x00, 0x01, 0x01, 0xb5, 0x0e, 0x06, 0xfc, 0xf9, 0x0a, 0xf3, 0x04, 0x03, 0xed, 0xe3, 0xf9, 0x09, 0x04, 0xee, 0xfb, 0x04, 0x03, 0x81, 0xf8, 0xfe, 0xf5, 0xfe, 0xfa, 0x1a, 0xfe, 0xfa, 0x10, 0xd5, 0x05, 0xfc, 0x06, 0x81, 0xff, 0xc8, 0x30, 0x01, 0x0f, 0xe9, 0xde, 0xe6, 0xf8, 0x03, 0xf9, 0x10, 0xfb, 0xfb, 0xb5, 0xec, 0xf7, 0xe2, 0x22, 0x0c, 0x05, 0x94, 0xa8, 0xfb, 0xe8, 0xd7, 0xb2, 0xf1, 0xfb, 0xf9, 0xfd, 0x21, 0xe2, 0x1b, 0x06, 0xf1, 0x08, 0x3e, 0xe1, 0xf5, 0xc9, 0x2b, 0xf6, 0x62, 0x07, 0x08, 0x11, 0xec, 0xf1, 0x33, 0xff, 0xdf, 0xf1, 0xf3, 0xd0, 0x31, 0xf6, 0x26, 0x0a, 0xca, 0xfa, 0xf9, 0x0a, 0x81, 0x01, 0x03, 0x13, 0xfd, 0xfa, 0xf9, 0xfe, 0xd6, 0xfd, 0xf7, 0xd9, 0xfc, 0x00, 0x0c, 0xf9, 0x06, 0x01, 0xdd, 0x0c, 0xf3, 0xf4, 0x09, 0xef, 0x00, 0x14, 0xd6, 0xe7, 0x02, 0xfe, 0xf5, 0xe4, 0xf0, 0xe5, 0xfd, 0xf5, 0x01, 0xf9, 0x13, 0xfe, 0xe4, 0xf0, 0xf6, 0xf3, 0x1f, 0xfc, 0x09, 0xfb, 0xf8, 0xf9, 0x10, 0x02, 0xcd, 0xe7, 0xf9, 0x12, 0x3d, 0xf7, 0xf1, 0xdb, 0x0a, 0x05, 0xe8, 0xdf, 0x00, 0xee, 0xf4, 0x07, 0xfd, 0x81, 0xfa, 0x29, 0xec, 0xfb, 0x08, 0xf5, 0x0d, 0xe5, 0xfa, 0x53, 0xe6, 0xfc, 0x05, 0x10, 0x0f, 0xeb, 0xf1, 0x06, 0xe2, 0x0b, 0x08, 0x28, 0x09, 0x01, 0x01, 0xf3, 0xbb, 0x0e, 0x03, 0xf4, 0x19, 0xd3, 0xf7, 0xfd, 0x04, 0x06, 0xdf, 0xed, 0x35, 0xf5, 0xef, 0xf8, 0xfc, 0x05, 0xdc, 0x0f, 0x03, 0x0d, 0x02, 0x06, 0xd9, 0xe4, 0xed, 0xd9, 0xf9, 0x07, 0xf0, 0xc7, 0xc4, 0x00, 0xae, 0xe0, 0x03, 0xf3, 0xf9, 0x81, 0x2f, 0x0b, 0x01, 0x06, 0x07, 0x13, 0x19, 0x45, 0x00, 0x21, 0x22, 0x1b, 0x08, 0x01, 0xe2, 0x31, 0xf9, 0x14, 0xf4, 0xe9, 0x00, 0x30, 0x0a, 0x11, 0xf0, 0xa2, 0xfd, 0x2c, 0xfa, 0xfe, 0x72, 0x11, 0x1f, 0x6c, 0x0a, 0xf0, 0x2d, 0x0a, 0x01, 0xff, 0x06, 0xfb, 0xec, 0x01, 0x09, 0xd5, 0x19, 0xd1, 0x8e, 0xfd, 0xec, 0x0e, 0x0a, 0x10, 0xf6, 0xff, 0x08, 0xfd, 0xfd, 0xf9, 0xfa, 0x1e, 0xf7, 0xd8, 0x1c, 0x0a, 0x05, 0x0c, 0x05, 0x0a, 0xf7, 0xf9, 0x07, 0xff, 0xfa, 0xbe, 0xfd, 0xf8, 0xe1, 0xe8, 0x02, 0xe0, 0x0b, 0xe3, 0xe1, 0x07, 0xfb, 0x16, 0x7f, 0xed, 0xe4, 0x0f, 0x00, 0x0d, 0x01, 0x0a, 0x04, 0x1e, 0x2c, 0x13, 0xec, 0x05, 0x40, 0x15, 0x06, 0x05, 0xd5, 0x05, 0x11, 0x05, 0xfe, 0xf7, 0x9f, 0x0a, 0xf7, 0x00, 0x04, 0x0e, 0xed, 0xfa, 0x23, 0xf1, 0xe8, 0x0c, 0xe4, 0xce, 0xfd, 0x1a, 0x0b, 0xf2, 0xf4, 0xf5, 0xf4, 0xe2, 0x01, 0x1b, 0x06, 0x04, 0x08, 0x04, 0x05, 0xf0, 0x00, 0x13, 0xec, 0x0c, 0x05, 0xfb, 0xff, 0x05, 0xee, 0xff, 0x11, 0xf4, 0xfa, 0x04, 0xfc, 0xea, 0x12, 0x01, 0x01, 0x0a, 0x02, 0x01, 0xeb, 0xf0, 0x08, 0xeb, 0x02, 0x02, 0x7f, 0x0a, 0x06, 0x09, 0x04, 0x05, 0x1c, 0xfe, 0xfa, 0x01, 0xe1, 0xef, 0x01, 0xfd, 0xc8, 0xfb, 0xfe, 0x13, 0xfe, 0x0d, 0xfd, 0x07, 0xf5, 0x01, 0x01, 0xe6, 0x03, 0xff, 0x03, 0xf2, 0xf2, 0xfd, 0xf7, 0x14, 0xfc, 0xea, 0xff, 0xe3, 0xfd, 0x0c, 0xe0, 0xf8, 0x02, 0xfb, 0xfc, 0xec, 0x0a, 0xf4, 0x05, 0xf9, 0xf7, 0x00, 0x15, 0xff, 0xf6, 0x01, 0xfb, 0xfd, 0xff, 0x02, 0x13, 0xfe, 0xf1, 0xfe, 0x7f, 0x02, 0xdc, 0xf9, 0xfe, 0x09, 0x43, 0xee, 0x03, 0x07, 0xef, 0xed, 0xeb, 0xf4, 0xea, 0xfd, 0xc6, 0x08, 0x04, 0x13, 0x04, 0x9a, 0xfc, 0x0a, 0xf8, 0x0e, 0x02, 0x0d, 0x0e, 0x0b, 0x04, 0x09, 0x22, 0x0d, 0x07, 0xff, 0x27, 0xda, 0xfd, 0x08, 0x01, 0xc6, 0xf9, 0x09, 0xff, 0x11, 0x41, 0xb7, 0xe6, 0x0a, 0xdf, 0xff, 0x19, 0x05, 0x05, 0x2f, 0xff, 0x04, 0xda, 0x01, 0xed, 0x0c, 0x08, 0x01, 0x81, 0xf0, 0x07, 0x00, 0x01, 0xf4, 0xdf, 0x01, 0xd3, 0x17, 0xfe, 0xda, 0xd7, 0x16, 0x06, 0xe4, 0xb8, 0x14, 0xf6, 0x92, 0xf8, 0x09, 0x06, 0x0f, 0x02, 0x05, 0xea, 0xf2, 0x07, 0xb0, 0x09, 0xde, 0xfa, 0x13, 0x02, 0xf6, 0x11, 0xd8, 0x00, 0xd7, 0xef, 0xf2, 0xce, 0xed, 0xf5, 0x05, 0x39, 0xf5, 0xe1, 0x10, 0x03, 0xf7, 0x15, 0xe3, 0xe4, 0xca, 0x2a, 0x00, 0x81, 0xff, 0x22, 0x0d, 0xe4, 0xfc, 0x5f, 0xe4, 0xee, 0x07, 0xf8, 0xda, 0x64, 0x07, 0x2a, 0x02, 0x03, 0x05, 0x00, 0x01, 0x0f, 0x00, 0x02, 0x07, 0xfe, 0x03, 0x03, 0x2e, 0x03, 0x00, 0xfe, 0xfd, 0x01, 0x01, 0xfb, 0x04, 0xfe, 0x04, 0xf6, 0xfd, 0xfa, 0xf9, 0xf3, 0x02, 0x01, 0x00, 0xfd, 0x02, 0xfe, 0x04, 0x01, 0x00, 0x23, 0xfa, 0x01, 0x03, 0xff, 0xfe, 0x09, 0x02, 0x01, 0x05, 0xfc, 0x01, 0x00, 0x00, 0x19, 0x02, 0x01, 0x00, 0x7f, 0x02, 0xfe, 0xfd, 0xff, 0xf4, 0xe8, 0x00, 0xff, 0x09, 0x0e, 0x07, 0x10, 0xf2, 0x0f, 0xfe, 0x06, 0x08, 0xf4, 0xf8, 0x08, 0xde, 0x2c, 0xf5, 0xf7, 0xf9, 0x05, 0xea, 0xfe, 0xf0, 0x0c, 0x05, 0x0a, 0x04, 0x05, 0xfa, 0xf7, 0x10, 0x03, 0xf5, 0x11, 0xf3, 0xf8, 0xfe, 0xf2, 0xec, 0xe0, 0xfb, 0x13, 0xf7, 0xee, 0xe4, 0x01, 0x09, 0x02, 0x06, 0x02, 0x12, 0xfe, 0x03, 0x09, 0x01, 0xf4, 0x09, 0x23, 0xf9, 0x0c, 0x08, 0xf4, 0xe5, 0x7f, 0x06, 0x60, 0x05, 0xfb, 0xff, 0xef, 0xec, 0x16, 0xf7, 0x04, 0xfd, 0xe2, 0x81, 0xfe, 0xfa, 0x1d, 0xf8, 0xe6, 0x00, 0xfa, 0xdf, 0x00, 0x2a, 0xf3, 0x05, 0x0c, 0x02, 0x08, 0xea, 0xfe, 0x11, 0xfa, 0x01, 0x0f, 0x11, 0x01, 0x03, 0xf5, 0xed, 0xf5, 0xf8, 0xf9, 0x0d, 0x03, 0xef, 0x06, 0x03, 0xff, 0x0f, 0x0d, 0x08, 0x21, 0xef, 0xf4, 0xe9, 0xff, 0xff, 0x0b, 0x07, 0x09, 0x04, 0x01, 0x0b, 0xa9, 0x01, 0x01, 0x06, 0x05, 0x01, 0xff, 0x01, 0x06, 0xff, 0xf9, 0x09, 0x00, 0x09, 0x00, 0x17, 0x0b, 0x00, 0x00, 0xfe, 0x01, 0x01, 0xfb, 0xf9, 0x06, 0x04, 0xfe, 0xfc, 0x01, 0xfd, 0xf5, 0x04, 0xfe, 0x00, 0x00, 0x08, 0xfe, 0xfe, 0x00, 0x05, 0x1c, 0xfe, 0xfe, 0x00, 0x01, 0x01, 0xf4, 0x01, 0xfb, 0x02, 0xfe, 0x05, 0x03, 0x02, 0x1b, 0xfb, 0xff, 0x01, 0x7f, 0x01, 0xfd, 0x00, 0xfd, 0xfd, 0x16, 0x03, 0xf4, 0xe9, 0x11, 0xfd, 0x06, 0xf4, 0x3e, 0x09, 0x0b, 0xeb, 0xef, 0xd1, 0x0f, 0xfd, 0x07, 0x02, 0x01, 0x06, 0xfd, 0x01, 0xdd, 0x32, 0x12, 0xfc, 0xf8, 0xee, 0x03, 0x09, 0xee, 0x31, 0xfd, 0x1c, 0xf8, 0x10, 0x05, 0xf4, 0xff, 0x04, 0xc4, 0x1f, 0xe3, 0xe6, 0xfe, 0x01, 0xd8, 0x06, 0x00, 0xf1, 0x0f, 0x01, 0xb1, 0x04, 0xd3, 0xf7, 0x06, 0x00, 0x7f, 0xdd, 0x06, 0x0c, 0xe9, 0x08, 0x2f, 0x00, 0x0d, 0x06, 0xf8, 0xff, 0x02, 0x01, 0xea, 0x01, 0xf4, 0x05, 0x01, 0x07, 0xfd, 0x12, 0x03, 0xfd, 0xfe, 0xf9, 0x03, 0x03, 0x06, 0xf9, 0xfe, 0x03, 0x04, 0x0b, 0x06, 0x02, 0xfd, 0xfd, 0xff, 0x05, 0xe5, 0x02, 0x01, 0x02, 0x03, 0xfe, 0x02, 0xf6, 0x04, 0x07, 0xfd, 0x06, 0x14, 0xff, 0x04, 0x02, 0xf9, 0x04, 0x1e, 0x01, 0x03, 0xfb, 0x02, 0x01, 0x7f, 0x04, 0xf7, 0xea, 0x02, 0xfe, 0xd0, 0x00, 0xf0, 0x03, 0xfb, 0x00, 0x00, 0x03, 0xf9, 0x00, 0xfc, 0x0a, 0xfe, 0xfd, 0x00, 0x21, 0x02, 0x01, 0x00, 0x00, 0x01, 0xff, 0xff, 0xf7, 0x06, 0xff, 0x02, 0xfa, 0x02, 0xf9, 0xfa, 0xf8, 0x00, 0x02, 0xff, 0x08, 0xff, 0xfd, 0x00, 0x04, 0x30, 0x01, 0xff, 0x03, 0x03, 0xff, 0xee, 0xfe, 0xf6, 0xfb, 0x03, 0x07, 0xf3, 0xff, 0x20, 0xfc, 0x00, 0x03, 0x7f, 0x00, 0x02, 0x02, 0xfa, 0xfa, 0xd1, 0x03, 0xf6, 0xe1, 0x0d, 0x0d, 0xfa, 0xf5, 0x19, 0xf6, 0x0a, 0xf1, 0xff, 0x04, 0xfc, 0xfb, 0x0b, 0x05, 0x04, 0x11, 0x06, 0xf8, 0xed, 0xf3, 0xed, 0xf0, 0xff, 0xd4, 0xfe, 0xff, 0xfc, 0x05, 0xf8, 0xfc, 0x0f, 0x09, 0xfa, 0xf8, 0x00, 0xf8, 0xe6, 0x1f, 0xf9, 0xf4, 0x0c, 0x01, 0xc3, 0xec, 0x04, 0x06, 0x0b, 0x00, 0xe1, 0xfe, 0x18, 0x03, 0x01, 0x01, 0x81, 0x05, 0x09, 0x14, 0xf9, 0x02, 0xdb, 0xfe, 0x09, 0x04, 0x00, 0xff, 0x01, 0xfc, 0x16, 0x00, 0x00, 0xfd, 0x00, 0x0b, 0xf3, 0x1f, 0x16, 0xfd, 0xfc, 0x02, 0x03, 0x01, 0xfe, 0x13, 0xf1, 0x08, 0xfa, 0x04, 0xf5, 0x00, 0xe0, 0x08, 0xff, 0xfb, 0xef, 0xfc, 0xff, 0x01, 0xff, 0xf3, 0x15, 0xf6, 0x06, 0x02, 0x00, 0x03, 0x0f, 0x01, 0x01, 0xf2, 0x03, 0x02, 0x1e, 0x01, 0x02, 0xf6, 0x00, 0xfd, 0x7f, 0x03, 0xf4, 0xfa, 0xff, 0xf2, 0xe8, 0xfb, 0xef, 0xda, 0xf5, 0x01, 0x07, 0x06, 0xd6, 0x05, 0x0f, 0xe6, 0xfa, 0xbe, 0xfe, 0xe8, 0xf8, 0x02, 0x00, 0x02, 0xf0, 0xf1, 0xf3, 0x64, 0x24, 0xfc, 0xfe, 0x07, 0x00, 0x08, 0x22, 0xf2, 0x06, 0x0f, 0x03, 0x25, 0xfa, 0x0d, 0xfd, 0x1f, 0xbf, 0x1b, 0xc7, 0xd4, 0x09, 0xef, 0xd2, 0x09, 0xe4, 0xef, 0xf4, 0xfc, 0x81, 0x0a, 0xd0, 0xfd, 0x01, 0xfd, 0x81, 0xb3, 0x09, 0xea, 0xe9, 0x30, 0x04, 0x15, 0x22, 0x0a, 0xff, 0xdc, 0xf0, 0x16, 0x0b, 0xfe, 0x1f, 0x0a, 0xfa, 0x45, 0xff, 0xfa, 0x0e, 0xef, 0xf9, 0xe5, 0xf7, 0xf2, 0x01, 0xba, 0x01, 0xee, 0xeb, 0x0b, 0xea, 0xe6, 0x81, 0x16, 0xfb, 0x08, 0xf8, 0x00, 0xed, 0xfd, 0xfa, 0xd0, 0x11, 0xec, 0xf4, 0xea, 0x01, 0xed, 0x19, 0xdd, 0xe0, 0xe8, 0x0e, 0x01, 0x2e, 0x01, 0xf4, 0xf3, 0xd6, 0xfd, 0x0d, 0x01, 0xef, 0xf7, 0xe6, 0x04, 0xed, 0xff, 0x1a, 0xfc, 0xec, 0xfd, 0x00, 0x03, 0x11, 0xfc, 0xeb, 0x0b, 0x03, 0x09, 0xe8, 0xe6, 0x07, 0xfc, 0xfe, 0x03, 0x02, 0xfd, 0xfd, 0x38, 0xf7, 0x01, 0x0c, 0x06, 0x01, 0x04, 0xfa, 0xd8, 0xfd, 0x02, 0xf1, 0x04, 0xfd, 0x02, 0x00, 0xfe, 0x26, 0x08, 0x02, 0x07, 0xff, 0xfc, 0x26, 0x02, 0x08, 0xfd, 0xf5, 0x09, 0x23, 0x05, 0x17, 0xf8, 0x01, 0x03, 0x7f, 0x00, 0xf4, 0xf7, 0x05, 0x01, 0x95, 0x03, 0xb6, 0x04, 0xff, 0x05, 0x05, 0xfe, 0x01, 0x02, 0xf9, 0x08, 0x01, 0x04, 0xfe, 0x12, 0x01, 0xfb, 0x01, 0xfa, 0x05, 0xfc, 0x02, 0x0e, 0xfa, 0xff, 0x00, 0x00, 0x05, 0x01, 0xfa, 0x01, 0x00, 0x05, 0xf3, 0x00, 0x03, 0xff, 0x01, 0xf8, 0x22, 0xf5, 0x07, 0x04, 0xff, 0x02, 0x0b, 0xff, 0xff, 0xfb, 0xf9, 0x02, 0x1e, 0x01, 0xff, 0xf2, 0x03, 0x00, 0x7f, 0x07, 0xf6, 0xf8, 0x01, 0xfd, 0xd8, 0xfe, 0xf4, 0x0c, 0xea, 0xf0, 0x08, 0xfc, 0x18, 0xfd, 0xdd, 0x11, 0x07, 0x1a, 0xfb, 0x00, 0x23, 0x15, 0x07, 0x15, 0x01, 0x03, 0x01, 0xe9, 0xfc, 0xf8, 0x23, 0x08, 0x19, 0x07, 0x09, 0xcf, 0x01, 0xe7, 0x05, 0xe8, 0xf4, 0x0b, 0x0c, 0xf1, 0x3f, 0xc5, 0x13, 0x0c, 0xf4, 0x02, 0xfc, 0xfe, 0x05, 0x0c, 0x24, 0x13, 0x0b, 0x10, 0x20, 0x02, 0xfd, 0x05, 0x7f, 0xf7, 0x09, 0x0b, 0x03, 0xe0, 0xbe, 0x0a, 0x06, 0xff, 0x03, 0x0e, 0x01, 0xfe, 0xfe, 0x07, 0x05, 0x00, 0x03, 0x00, 0x04, 0x49, 0x11, 0x02, 0x05, 0x0c, 0x04, 0x05, 0xf1, 0x00, 0x05, 0x01, 0xec, 0xda, 0xf9, 0xee, 0xee, 0xfd, 0x08, 0x02, 0x08, 0x07, 0x03, 0xf8, 0x03, 0x0e, 0x60, 0xf5, 0x01, 0x0f, 0x09, 0xff, 0x0d, 0x02, 0x03, 0x04, 0xf3, 0x02, 0x07, 0xfc, 0x7f, 0x0d, 0x02, 0x02, 0x55, 0x0a, 0x0e, 0x03, 0x00, 0xee, 0xca, 0x03, 0xea, 0xfe, 0xfc, 0xff, 0xff, 0x04, 0x00, 0x00, 0x00, 0x80, 0x00, 0x00, 0x00, 0x3c, 0x01, 0x00, 0x00, 0xaf, 0x02, 0x00, 0x00, 0x90, 0x01, 0x00, 0x00, 0x64, 0x01, 0x00, 0x00, 0x24, 0x02, 0x00, 0x00, 0x3e, 0x0a, 0x00, 0x00, 0x65, 0x02, 0x00, 0x00, 0xb4, 0x01, 0x00, 0x00, 0xfc, 0x03, 0x00, 0x00, 0x03, 0x05, 0x00, 0x00, 0x34, 0x02, 0x00, 0x00, 0x91, 0xff, 0xff, 0xff, 0x1f, 0xfd, 0xff, 0xff, 0x69, 0x00, 0x00, 0x00, 0x31, 0x02, 0x00, 0x00, 0x3b, 0x00, 0x00, 0x00, 0x06, 0x02, 0x00, 0x00, 0x7e, 0xff, 0xff, 0xff, 0x3f, 0xfd, 0xff, 0xff, 0x2a, 0x00, 0x00, 0x00, 0x2b, 0xff, 0xff, 0xff, 0x68, 0x00, 0x00, 0x00, 0x44, 0x00, 0x00, 0x00, 0x1d, 0xff, 0xff, 0xff, 0x12, 0x00, 0x00, 0x00, 0x80, 0x00, 0x00, 0x00, 0x6c, 0x01, 0x00, 0x00, 0x69, 0x03, 0x00, 0x00, 0xc6, 0x00, 0x00, 0x00, 0x08, 0x00, 0x00, 0x00, 0xef, 0xfb, 0xff, 0xff, 0xab, 0xfd, 0xff, 0xff, 0x8a, 0xfd, 0xff, 0xff, 0x04, 0x00, 0x00, 0x00, 0x00, 0x02, 0x00, 0x00, 0xb0, 0x20, 0x15, 0x57, 0xf5, 0x1b, 0x87, 0xf0, 0xf2, 0x81, 0x66, 0xe3, 0x17, 0xcd, 0xac, 0xda, 0xe3, 0xfe, 0xe5, 0xe4, 0xda, 0xf4, 0xce, 0xea, 0x46, 0x14, 0xf2, 0x2e, 0xf7, 0xff, 0x30, 0xf0, 0x30, 0xd9, 0xbd, 0x63, 0x18, 0x56, 0x7f, 0xa9, 0x5f, 0xfb, 0x01, 0x2e, 0x0f, 0xce, 0x17, 0x04, 0x28, 0xce, 0xba, 0xb3, 0xc6, 0xfb, 0xdc, 0x08, 0x5f, 0x9c, 0x31, 0xed, 0xc3, 0xdd, 0x1c, 0xe9, 0x2e, 0x2f, 0xc8, 0xee, 0xf9, 0x7f, 0x18, 0xe7, 0xd4, 0xf4, 0x68, 0x24, 0xbf, 0x24, 0x26, 0x03, 0xa9, 0xe1, 0x99, 0x4f, 0xd1, 0x00, 0x04, 0xe3, 0x06, 0x03, 0xf5, 0xb1, 0x2f, 0xf5, 0xd5, 0xd6, 0xf8, 0x19, 0x19, 0x1e, 0xe6, 0x87, 0x73, 0x49, 0xe7, 0xa1, 0xb2, 0xce, 0xe1, 0xb4, 0x8a, 0xae, 0x17, 0xe5, 0x20, 0xfd, 0x1e, 0x34, 0xec, 0xe8, 0x02, 0x1b, 0x11, 0x7f, 0x12, 0xe2, 0xe1, 0xec, 0xe7, 0xe0, 0x44, 0xe9, 0x5d, 0xbe, 0xff, 0x3a, 0xaa, 0x5e, 0x3b, 0x64, 0x02, 0x0c, 0x81, 0xbe, 0x3c, 0xc3, 0x07, 0x0b, 0xe4, 0xed, 0xad, 0xd2, 0xcf, 0x46, 0xba, 0xdf, 0xdc, 0x39, 0xe9, 0xdb, 0x0b, 0x07, 0xe7, 0xbd, 0xd5, 0xec, 0x14, 0x3b, 0xfb, 0x19, 0x30, 0x10, 0xd0, 0x1a, 0xf2, 0xf2, 0x9a, 0xca, 0xde, 0xfd, 0xc1, 0x1a, 0x31, 0xb5, 0x17, 0xf2, 0x3b, 0x81, 0x26, 0x01, 0xcb, 0xe8, 0x07, 0xd7, 0xf8, 0x17, 0x09, 0xe2, 0x18, 0x06, 0xf5, 0x81, 0x09, 0x29, 0x40, 0xa4, 0xd7, 0x4b, 0x04, 0x16, 0xe7, 0xbd, 0xf0, 0xdc, 0x21, 0x02, 0x23, 0x38, 0x09, 0xbe, 0x1b, 0xee, 0x16, 0xe8, 0xf0, 0xc6, 0xe6, 0x2c, 0x11, 0x69, 0xc0, 0xdf, 0x11, 0xe1, 0xf6, 0x0b, 0x10, 0x4b, 0x09, 0x0a, 0x13, 0x1b, 0xd0, 0x3a, 0x10, 0x0d, 0xf9, 0x2f, 0x21, 0x30, 0xa4, 0x81, 0x2e, 0xed, 0xff, 0x13, 0xe0, 0xfa, 0x25, 0xd9, 0xfa, 0x90, 0xa1, 0x3e, 0x22, 0xdc, 0xf4, 0x15, 0xd9, 0xd4, 0x1b, 0xca, 0x91, 0x28, 0xc4, 0xae, 0xfe, 0xd4, 0x5a, 0x18, 0x81, 0x1b, 0x95, 0xbb, 0x19, 0x41, 0xf6, 0xf3, 0xf2, 0xec, 0x00, 0x1b, 0x1a, 0xd9, 0xff, 0xf3, 0x39, 0xa6, 0xd2, 0x0e, 0x1c, 0xb4, 0xb0, 0x32, 0xc6, 0xf7, 0xc8, 0xcb, 0x1a, 0xc6, 0x1a, 0xe9, 0xbe, 0x65, 0xd0, 0xa7, 0x7f, 0x1e, 0x38, 0xfd, 0x27, 0x0c, 0x0d, 0xe2, 0x04, 0xec, 0xb6, 0xfb, 0xef, 0x0b, 0xcf, 0xd8, 0xe2, 0xa2, 0x81, 0x0f, 0xce, 0xfe, 0xbd, 0xaf, 0x24, 0xfa, 0xe1, 0x29, 0x25, 0x8f, 0xee, 0x68, 0x6b, 0x02, 0xd7, 0xe5, 0xe1, 0xdf, 0xee, 0x50, 0x6d, 0x66, 0x0f, 0x13, 0x33, 0xf9, 0x04, 0x1c, 0x99, 0xd4, 0xb4, 0x1c, 0x35, 0xe4, 0x05, 0xb5, 0x81, 0xb3, 0x06, 0x96, 0x8c, 0x35, 0xf1, 0x18, 0xe0, 0xd6, 0xf7, 0xb6, 0xf1, 0xdf, 0xe7, 0x0b, 0xd9, 0x44, 0x15, 0xf2, 0x27, 0x52, 0xfe, 0xac, 0xd2, 0xbc, 0x7f, 0xdc, 0xfe, 0xde, 0xd9, 0xf8, 0x16, 0xe8, 0xe3, 0x0c, 0xb9, 0x2f, 0xfa, 0x39, 0x2b, 0xf8, 0xf7, 0x05, 0xc3, 0xdb, 0x4a, 0xf4, 0x32, 0x5b, 0x37, 0xf4, 0x39, 0xdb, 0x43, 0x1d, 0xed, 0xed, 0x3c, 0xa0, 0x0f, 0x21, 0xd6, 0xa7, 0xe4, 0xf6, 0xee, 0xd0, 0xa7, 0x0d, 0xf3, 0x7f, 0x4c, 0x02, 0x26, 0xd2, 0x50, 0x2b, 0xe7, 0xe5, 0x25, 0x3a, 0xe6, 0xeb, 0xe5, 0x10, 0x0d, 0x2b, 0xe5, 0x5f, 0x15, 0x00, 0xe5, 0x0b, 0x3b, 0x0c, 0xf3, 0xff, 0x0f, 0x09, 0xd2, 0x2a, 0x05, 0x81, 0x41, 0xfa, 0xe7, 0xe4, 0xcc, 0xf4, 0x0f, 0xac, 0xcc, 0xa1, 0xb0, 0x25, 0xa1, 0xe2, 0xc5, 0x3b, 0x0c, 0xe8, 0x9d, 0xcf, 0xf1, 0x65, 0x09, 0xda, 0x22, 0x4f, 0xef, 0x12, 0x6d, 0x7f, 0xc4, 0xdd, 0x74, 0xc5, 0xb4, 0x65, 0x96, 0xff, 0xff, 0xff, 0x04, 0x00, 0x00, 0x00, 0x40, 0x00, 0x00, 0x00, 0x2f, 0x05, 0x00, 0x00, 0x07, 0xfd, 0xff, 0xff, 0xfd, 0x04, 0x00, 0x00, 0x63, 0x06, 0x00, 0x00, 0x83, 0xfc, 0xff, 0xff, 0x01, 0x09, 0x00, 0x00, 0xa5, 0xfe, 0xff, 0xff, 0xba, 0xff, 0xff, 0xff, 0x9a, 0x07, 0x00, 0x00, 0xc6, 0x02, 0x00, 0x00, 0x63, 0x07, 0x00, 0x00, 0x9d, 0x03, 0x00, 0x00, 0x3b, 0x03, 0x00, 0x00, 0x64, 0xfe, 0xff, 0xff, 0x8c, 0xfc, 0xff, 0xff, 0x54, 0x06, 0x00, 0x00, 0xe2, 0xff, 0xff, 0xff, 0x04, 0x00, 0x00, 0x00, 0x10, 0x00, 0x00, 0x00, 0xac, 0x3f, 0x8f, 0xa5, 0x32, 0x9b, 0x3f, 0xdd, 0x7f, 0x3b, 0x22, 0x3e, 0x63, 0x4e, 0xca, 0x3f, 0x00, 0x00, 0x06, 0x00, 0x08, 0x00, 0x04, 0x00, 0x06, 0x00, 0x00, 0x00, 0x04, 0x00, 0x00, 0x00, 0x04, 0x00, 0x00, 0x00, 0xed, 0xfe, 0xff, 0xff, 0x38, 0xeb, 0xff, 0xff, 0x3c, 0xeb, 0xff, 0xff, 0x0f, 0x00, 0x00, 0x00, 0x4d, 0x4c, 0x49, 0x52, 0x20, 0x43, 0x6f, 0x6e, 0x76, 0x65, 0x72, 0x74, 0x65, 0x64, 0x2e, 0x00, 0x01, 0x00, 0x00, 0x00, 0x14, 0x00, 0x00, 0x00, 0x00, 0x00, 0x0e, 0x00, 0x18, 0x00, 0x14, 0x00, 0x10, 0x00, 0x0c, 0x00, 0x08, 0x00, 0x04, 0x00, 0x0e, 0x00, 0x00, 0x00, 0x14, 0x00, 0x00, 0x00, 0x1c, 0x00, 0x00, 0x00, 0xb0, 0x01, 0x00, 0x00, 0xb4, 0x01, 0x00, 0x00, 0xb8, 0x01, 0x00, 0x00, 0x04, 0x00, 0x00, 0x00, 0x6d, 0x61, 0x69, 0x6e, 0x00, 0x00, 0x00, 0x00, 0x07, 0x00, 0x00, 0x00, 0x78, 0x01, 0x00, 0x00, 0x28, 0x01, 0x00, 0x00, 0xdc, 0x00, 0x00, 0x00, 0x90, 0x00, 0x00, 0x00, 0x58, 0x00, 0x00, 0x00, 0x34, 0x00, 0x00, 0x00, 0x04, 0x00, 0x00, 0x00, 0xde, 0xff, 0xff, 0xff, 0x0c, 0x00, 0x00, 0x00, 0x10, 0x00, 0x00, 0x00, 0x03, 0x00, 0x00, 0x00, 0x01, 0x00, 0x00, 0x00, 0x0f, 0x00, 0x00, 0x00, 0x01, 0x00, 0x00, 0x00, 0x0e, 0x00, 0x00, 0x00, 0x00, 0x00, 0x0a, 0x00, 0x10, 0x00, 0x0c, 0x00, 0x08, 0x00, 0x04, 0x00, 0x0a, 0x00, 0x00, 0x00, 0x0c, 0x00, 0x00, 0x00, 0x10, 0x00, 0x00, 0x00, 0x02, 0x00, 0x00, 0x00, 0x01, 0x00, 0x00, 0x00, 0x0e, 0x00, 0x00, 0x00, 0x01, 0x00, 0x00, 0x00, 0x0d, 0x00, 0x00, 0x00, 0x92, 0xff, 0xff, 0xff, 0x14, 0x00, 0x00, 0x00, 0x00, 0x00, 0x00, 0x08, 0x10, 0x00, 0x00, 0x00, 0x14, 0x00, 0x00, 0x00, 0x01, 0x00, 0x00, 0x00, 0x14, 0xec, 0xff, 0xff, 0x01, 0x00, 0x00, 0x00, 0x0d, 0x00, 0x00, 0x00, 0x03, 0x00, 0x00, 0x00, 0x0c, 0x00, 0x00, 0x00, 0x02, 0x00, 0x00, 0x00, 0x01, 0x00, 0x00, 0x00, 0xc6, 0xff, 0xff, 0xff, 0x14, 0x00, 0x00, 0x00, 0x00, 0x00, 0x00, 0x08, 0x14, 0x00, 0x00, 0x00, 0x18, 0x00, 0x00, 0x00, 0x01, 0x00, 0x00, 0x00, 0x6e, 0xff, 0xff, 0xff, 0x00, 0x00, 0x00, 0x01, 0x01, 0x00, 0x00, 0x00, 0x0c, 0x00, 0x00, 0x00, 0x03, 0x00, 0x00, 0x00, 0x0b, 0x00, 0x00, 0x00, 0x04, 0x00, 0x00, 0x00, 0x03, 0x00, 0x00, 0x00, 0x00, 0x00, 0x0e, 0x00, 0x18, 0x00, 0x14, 0x00, 0x10, 0x00, 0x0c, 0x00, 0x0b, 0x00, 0x04, 0x00, 0x0e, 0x00, 0x00, 0x00, 0x14, 0x00, 0x00, 0x00, 0x00, 0x00, 0x00, 0x08, 0x14, 0x00, 0x00, 0x00, 0x18, 0x00, 0x00, 0x00, 0x01, 0x00, 0x00, 0x00, 0xb6, 0xff, 0xff, 0xff, 0x00, 0x00, 0x00, 0x01, 0x01, 0x00, 0x00, 0x00, 0x0b, 0x00, 0x00, 0x00, 0x03, 0x00, 0x00, 0x00, 0x0a, 0x00, 0x00, 0x00, 0x06, 0x00, 0x00, 0x00, 0x05, 0x00, 0x00, 0x00, 0x00, 0x00, 0x0e, 0x00, 0x1a, 0x00, 0x14, 0x00, 0x10, 0x00, 0x0c, 0x00, 0x0b, 0x00, 0x04, 0x00, 0x0e, 0x00, 0x00, 0x00, 0x1c, 0x00, 0x00, 0x00, 0x00, 0x00, 0x00, 0x08, 0x1c, 0x00, 0x00, 0x00, 0x20, 0x00, 0x00, 0x00, 0x01, 0x00, 0x00, 0x00, 0x00, 0x00, 0x06, 0x00, 0x08, 0x00, 0x07, 0x00, 0x06, 0x00, 0x00, 0x00, 0x00, 0x00, 0x00, 0x01, 0x01, 0x00, 0x00, 0x00, 0x0a, 0x00, 0x00, 0x00, 0x03, 0x00, 0x00, 0x00, 0x09, 0x00, 0x00, 0x00, 0x08, 0x00, 0x00, 0x00, 0x07, 0x00, 0x00, 0x00, 0x00, 0x00, 0x0a, 0x00, 0x0c, 0x00, 0x00, 0x00, 0x08, 0x00, 0x04, 0x00, 0x0a, 0x00, 0x00, 0x00, 0x08, 0x00, 0x00, 0x00, 0x0c, 0x00, 0x00, 0x00, 0x01, 0x00, 0x00, 0x00, 0x09, 0x00, 0x00, 0x00, 0x01, 0x00, 0x00, 0x00, 0x00, 0x00, 0x00, 0x00, 0x01, 0x00, 0x00, 0x00, 0x0f, 0x00, 0x00, 0x00, 0x01, 0x00, 0x00, 0x00, 0x00, 0x00, 0x00, 0x00, 0x10, 0x00, 0x00, 0x00, 0x9c, 0x12, 0x00, 0x00, 0x18, 0x12, 0x00, 0x00, 0x98, 0x11, 0x00, 0x00, 0x84, 0x10, 0x00, 0x00, 0x68, 0x0f, 0x00, 0x00, 0x94, 0x0d, 0x00, 0x00, 0xb8, 0x0b, 0x00, 0x00, 0x64, 0x08, 0x00, 0x00, 0x08, 0x05, 0x00, 0x00, 0x94, 0x04, 0x00, 0x00, 0xc8, 0x03, 0x00, 0x00, 0xa4, 0x02, 0x00, 0x00, 0x80, 0x01, 0x00, 0x00, 0xe4, 0x00, 0x00, 0x00, 0x60, 0x00, 0x00, 0x00, 0x04, 0x00, 0x00, 0x00, 0xba, 0xed, 0xff, 0xff, 0x00, 0x00, 0x00, 0x01, 0x14, 0x00, 0x00, 0x00, 0x1c, 0x00, 0x00, 0x00, 0x1c, 0x00, 0x00, 0x00, 0x10, 0x00, 0x00, 0x00, 0x34, 0x00, 0x00, 0x00, 0x02, 0x00, 0x00, 0x00, 0xff, 0xff, 0xff, 0xff, 0x01, 0x00, 0x00, 0x00, 0xa4, 0xed, 0xff, 0xff, 0x1b, 0x00, 0x00, 0x00, 0x53, 0x74, 0x61, 0x74, 0x65, 0x66, 0x75, 0x6c, 0x50, 0x61, 0x72, 0x74, 0x69, 0x74, 0x69, 0x6f, 0x6e, 0x65, 0x64, 0x43, 0x61, 0x6c, 0x6c, 0x5f, 0x31, 0x3a, 0x30, 0x00, 0x02, 0x00, 0x00, 0x00, 0x01, 0x00, 0x00, 0x00, 0x01, 0x00, 0x00, 0x00, 0xf6, 0xfb, 0xff, 0xff, 0x00, 0x00, 0x00, 0x01, 0x18, 0x00, 0x00, 0x00, 0x20, 0x00, 0x00, 0x00, 0x40, 0x00, 0x00, 0x00, 0x0f, 0x00, 0x00, 0x00, 0x00, 0x00, 0x00, 0x09, 0x58, 0x00, 0x00, 0x00, 0x02, 0x00, 0x00, 0x00, 0xff, 0xff, 0xff, 0xff, 0x01, 0x00, 0x00, 0x00, 0x8c, 0xee, 0xff, 0xff, 0x08, 0x00, 0x00, 0x00, 0x14, 0x00, 0x00, 0x00, 0x01, 0x00, 0x00, 0x00, 0x80, 0xff, 0xff, 0xff, 0xff, 0xff, 0xff, 0xff, 0x00, 0x00, 0x00, 0x00, 0x01, 0x00, 0x00, 0x00, 0x00, 0x00, 0x80, 0x3b, 0x1c, 0x00, 0x00, 0x00, 0x53, 0x74, 0x61, 0x74, 0x65, 0x66, 0x75, 0x6c, 0x50, 0x61, 0x72, 0x74, 0x69, 0x74, 0x69, 0x6f, 0x6e, 0x65, 0x64, 0x43, 0x61, 0x6c, 0x6c, 0x5f, 0x31, 0x3a, 0x30, 0x31, 0x00, 0x00, 0x00, 0x00, 0x02, 0x00, 0x00, 0x00, 0x01, 0x00, 0x00, 0x00, 0x01, 0x00, 0x00, 0x00, 0x76, 0xfc, 0xff, 0xff, 0x00, 0x00, 0x00, 0x01, 0x18, 0x00, 0x00, 0x00, 0x20, 0x00, 0x00, 0x00, 0x3c, 0x00, 0x00, 0x00, 0x0e, 0x00, 0x00, 0x00, 0x00, 0x00, 0x00, 0x09, 0x70, 0x00, 0x00, 0x00, 0x02, 0x00, 0x00, 0x00, 0xff, 0xff, 0xff, 0xff, 0x01, 0x00, 0x00, 0x00, 0x0c, 0xef, 0xff, 0xff, 0x08, 0x00, 0x00, 0x00, 0x10, 0x00, 0x00, 0x00, 0x01, 0x00, 0x00, 0x00, 0xe1, 0xff, 0xff, 0xff, 0xff, 0xff, 0xff, 0xff, 0x01, 0x00, 0x00, 0x00, 0x8c, 0xfd, 0x27, 0x3e, 0x38, 0x00, 0x00, 0x00, 0x73, 0x65, 0x71, 0x75, 0x65, 0x6e, 0x74, 0x69, 0x61, 0x6c, 0x5f, 0x31, 0x2f, 0x64, 0x65, 0x6e, 0x73, 0x65, 0x5f, 0x33, 0x5f, 0x31, 0x2f, 0x4d, 0x61, 0x74, 0x4d, 0x75, 0x6c, 0x3b, 0x73, 0x65, 0x71, 0x75, 0x65, 0x6e, 0x74, 0x69, 0x61, 0x6c, 0x5f, 0x31, 0x2f, 0x64, 0x65, 0x6e, 0x73, 0x65, 0x5f, 0x33, 0x5f, 0x31, 0x2f, 0x41, 0x64, 0x64, 0x00, 0x00, 0x00, 0x00, 0x02, 0x00, 0x00, 0x00, 0x01, 0x00, 0x00, 0x00, 0x01, 0x00, 0x00, 0x00, 0x0e, 0xfd, 0xff, 0xff, 0x00, 0x00, 0x00, 0x01, 0x18, 0x00, 0x00, 0x00, 0x20, 0x00, 0x00, 0x00, 0x3c, 0x00, 0x00, 0x00, 0x0d, 0x00, 0x00, 0x00, 0x00, 0x00, 0x00, 0x09, 0xf8, 0x00, 0x00, 0x00, 0x02, 0x00, 0x00, 0x00, 0xff, 0xff, 0xff, 0xff, 0x10, 0x00, 0x00, 0x00, 0xa4, 0xef, 0xff, 0xff, 0x08, 0x00, 0x00, 0x00, 0x10, 0x00, 0x00, 0x00, 0x01, 0x00, 0x00, 0x00, 0x80, 0xff, 0xff, 0xff, 0xff, 0xff, 0xff, 0xff, 0x01, 0x00, 0x00, 0x00, 0x53, 0xe4, 0x00, 0x3e, 0xc2, 0x00, 0x00, 0x00, 0x73, 0x65, 0x71, 0x75, 0x65, 0x6e, 0x74, 0x69, 0x61, 0x6c, 0x5f, 0x31, 0x2f, 0x62, 0x61, 0x74, 0x63, 0x68, 0x5f, 0x6e, 0x6f, 0x72, 0x6d, 0x61, 0x6c, 0x69, 0x7a, 0x61, 0x74, 0x69, 0x6f, 0x6e, 0x5f, 0x31, 0x5f, 0x32, 0x2f, 0x62, 0x61, 0x74, 0x63, 0x68, 0x6e, 0x6f, 0x72, 0x6d, 0x2f, 0x6d, 0x75, 0x6c, 0x5f, 0x31, 0x3b, 0x73, 0x65, 0x71, 0x75, 0x65, 0x6e, 0x74, 0x69, 0x61, 0x6c, 0x5f, 0x31, 0x2f, 0x62, 0x61, 0x74, 0x63, 0x68, 0x5f, 0x6e, 0x6f, 0x72, 0x6d, 0x61, 0x6c, 0x69, 0x7a, 0x61, 0x74, 0x69, 0x6f, 0x6e, 0x5f, 0x31, 0x5f, 0x32, 0x2f, 0x62, 0x61, 0x74, 0x63, 0x68, 0x6e, 0x6f, 0x72, 0x6d, 0x2f, 0x61, 0x64, 0x64, 0x5f, 0x31, 0x3b, 0x73, 0x65, 0x71, 0x75, 0x65, 0x6e, 0x74, 0x69, 0x61, 0x6c, 0x5f, 0x31, 0x2f, 0x64, 0x65, 0x6e, 0x73, 0x65, 0x5f, 0x32, 0x5f, 0x31, 0x2f, 0x4d, 0x61, 0x74, 0x4d, 0x75, 0x6c, 0x3b, 0x73, 0x65, 0x71, 0x75, 0x65, 0x6e, 0x74, 0x69, 0x61, 0x6c, 0x5f, 0x31, 0x2f, 0x64, 0x65, 0x6e, 0x73, 0x65, 0x5f, 0x32, 0x5f, 0x31, 0x2f, 0x52, 0x65, 0x6c, 0x75, 0x3b, 0x73, 0x65, 0x71, 0x75, 0x65, 0x6e, 0x74, 0x69, 0x61, 0x6c, 0x5f, 0x31, 0x2f, 0x64, 0x65, 0x6e, 0x73, 0x65, 0x5f, 0x32, 0x5f, 0x31, 0x2f, 0x42, 0x69, 0x61, 0x73, 0x41, 0x64, 0x64, 0x00, 0x00, 0x02, 0x00, 0x00, 0x00, 0x01, 0x00, 0x00, 0x00, 0x10, 0x00, 0x00, 0x00, 0x2e, 0xfe, 0xff, 0xff, 0x00, 0x00, 0x00, 0x01, 0x18, 0x00, 0x00, 0x00, 0x20, 0x00, 0x00, 0x00, 0x40, 0x00, 0x00, 0x00, 0x0c, 0x00, 0x00, 0x00, 0x00, 0x00, 0x00, 0x09, 0xf8, 0x00, 0x00, 0x00, 0x02, 0x00, 0x00, 0x00, 0xff, 0xff, 0xff, 0xff, 0x20, 0x00, 0x00, 0x00, 0xc4, 0xf0, 0xff, 0xff, 0x08, 0x00, 0x00, 0x00, 0x14, 0x00, 0x00, 0x00, 0x01, 0x00, 0x00, 0x00, 0x80, 0xff, 0xff, 0xff, 0xff, 0xff, 0xff, 0xff, 0x00, 0x00, 0x00, 0x00, 0x01, 0x00, 0x00, 0x00, 0xe9, 0xd2, 0x25, 0x3e, 0xbe, 0x00, 0x00, 0x00, 0x73, 0x65, 0x71, 0x75, 0x65, 0x6e, 0x74, 0x69, 0x61, 0x6c, 0x5f, 0x31, 0x2f, 0x62, 0x61, 0x74, 0x63, 0x68, 0x5f, 0x6e, 0x6f, 0x72, 0x6d, 0x61, 0x6c, 0x69, 0x7a, 0x61, 0x74, 0x69, 0x6f, 0x6e, 0x5f, 0x31, 0x2f, 0x62, 0x61, 0x74, 0x63, 0x68, 0x6e, 0x6f, 0x72, 0x6d, 0x2f, 0x6d, 0x75, 0x6c, 0x5f, 0x31, 0x3b, 0x73, 0x65, 0x71, 0x75, 0x65, 0x6e, 0x74, 0x69, 0x61, 0x6c, 0x5f, 0x31, 0x2f, 0x62, 0x61, 0x74, 0x63, 0x68, 0x5f, 0x6e, 0x6f, 0x72, 0x6d, 0x61, 0x6c, 0x69, 0x7a, 0x61, 0x74, 0x69, 0x6f, 0x6e, 0x5f, 0x31, 0x2f, 0x62, 0x61, 0x74, 0x63, 0x68, 0x6e, 0x6f, 0x72, 0x6d, 0x2f, 0x61, 0x64, 0x64, 0x5f, 0x31, 0x3b, 0x73, 0x65, 0x71, 0x75, 0x65, 0x6e, 0x74, 0x69, 0x61, 0x6c, 0x5f, 0x31, 0x2f, 0x64, 0x65, 0x6e, 0x73, 0x65, 0x5f, 0x31, 0x5f, 0x32, 0x2f, 0x4d, 0x61, 0x74, 0x4d, 0x75, 0x6c, 0x3b, 0x73, 0x65, 0x71, 0x75, 0x65, 0x6e, 0x74, 0x69, 0x61, 0x6c, 0x5f, 0x31, 0x2f, 0x64, 0x65, 0x6e, 0x73, 0x65, 0x5f, 0x31, 0x5f, 0x32, 0x2f, 0x52, 0x65, 0x6c, 0x75, 0x3b, 0x73, 0x65, 0x71, 0x75, 0x65, 0x6e, 0x74, 0x69, 0x61, 0x6c, 0x5f, 0x31, 0x2f, 0x64, 0x65, 0x6e, 0x73, 0x65, 0x5f, 0x31, 0x5f, 0x32, 0x2f, 0x42, 0x69, 0x61, 0x73, 0x41, 0x64, 0x64, 0x00, 0x00, 0x02, 0x00, 0x00, 0x00, 0x01, 0x00, 0x00, 0x00, 0x20, 0x00, 0x00, 0x00, 0x4e, 0xff, 0xff, 0xff, 0x00, 0x00, 0x00, 0x01, 0x18, 0x00, 0x00, 0x00, 0x20, 0x00, 0x00, 0x00, 0x3c, 0x00, 0x00, 0x00, 0x0b, 0x00, 0x00, 0x00, 0x00, 0x00, 0x00, 0x09, 0x88, 0x00, 0x00, 0x00, 0x02, 0x00, 0x00, 0x00, 0xff, 0xff, 0xff, 0xff, 0x40, 0x00, 0x00, 0x00, 0xe4, 0xf1, 0xff, 0xff, 0x08, 0x00, 0x00, 0x00, 0x10, 0x00, 0x00, 0x00, 0x01, 0x00, 0x00, 0x00, 0x80, 0xff, 0xff, 0xff, 0xff, 0xff, 0xff, 0xff, 0x01, 0x00, 0x00, 0x00, 0x51, 0xa0, 0x80, 0x3d, 0x52, 0x00, 0x00, 0x00, 0x73, 0x65, 0x71, 0x75, 0x65, 0x6e, 0x74, 0x69, 0x61, 0x6c, 0x5f, 0x31, 0x2f, 0x64, 0x65, 0x6e, 0x73, 0x65, 0x5f, 0x31, 0x2f, 0x4d, 0x61, 0x74, 0x4d, 0x75, 0x6c, 0x3b, 0x73, 0x65, 0x71, 0x75, 0x65, 0x6e, 0x74, 0x69, 0x61, 0x6c, 0x5f, 0x31, 0x2f, 0x64, 0x65, 0x6e, 0x73, 0x65, 0x5f, 0x31, 0x2f, 0x52, 0x65, 0x6c, 0x75, 0x3b, 0x73, 0x65, 0x71, 0x75, 0x65, 0x6e, 0x74, 0x69, 0x61, 0x6c, 0x5f, 0x31, 0x2f, 0x64, 0x65, 0x6e, 0x73, 0x65, 0x5f, 0x31, 0x2f, 0x42, 0x69, 0x61, 0x73, 0x41, 0x64, 0x64, 0x00, 0x00, 0x02, 0x00, 0x00, 0x00, 0x01, 0x00, 0x00, 0x00, 0x40, 0x00, 0x00, 0x00, 0x00, 0x00, 0x16, 0x00, 0x20, 0x00, 0x1c, 0x00, 0x1b, 0x00, 0x14, 0x00, 0x10, 0x00, 0x0c, 0x00, 0x00, 0x00, 0x00, 0x00, 0x08, 0x00, 0x07, 0x00, 0x16, 0x00, 0x00, 0x00, 0x00, 0x00, 0x00, 0x01, 0x18, 0x00, 0x00, 0x00, 0x20, 0x00, 0x00, 0x00, 0x40, 0x00, 0x00, 0x00, 0x0a, 0x00, 0x00, 0x00, 0x00, 0x00, 0x00, 0x09, 0x48, 0x00, 0x00, 0x00, 0x02, 0x00, 0x00, 0x00, 0xff, 0xff, 0xff, 0xff, 0x2f, 0x00, 0x00, 0x00, 0xac, 0xf2, 0xff, 0xff, 0x08, 0x00, 0x00, 0x00, 0x14, 0x00, 0x00, 0x00, 0x01, 0x00, 0x00, 0x00, 0xfc, 0xff, 0xff, 0xff, 0xff, 0xff, 0xff, 0xff, 0x00, 0x00, 0x00, 0x00, 0x01, 0x00, 0x00, 0x00, 0x2c, 0xcc, 0x21, 0x3e, 0x0c, 0x00, 0x00, 0x00, 0x74, 0x66, 0x6c, 0x2e, 0x71, 0x75, 0x61, 0x6e, 0x74, 0x69, 0x7a, 0x65, 0x00, 0x00, 0x00, 0x00, 0x02, 0x00, 0x00, 0x00, 0x01, 0x00, 0x00, 0x00, 0x2f, 0x00, 0x00, 0x00, 0x22, 0xf3, 0xff, 0xff, 0x00, 0x00, 0x00, 0x01, 0x14, 0x00, 0x00, 0x00, 0x28, 0x03, 0x00, 0x00, 0x09, 0x00, 0x00, 0x00, 0x00, 0x00, 0x00, 0x09, 0x34, 0x03, 0x00, 0x00, 0x0c, 0xf3, 0xff, 0xff, 0x08, 0x00, 0x00, 0x00, 0x0c, 0x02, 0x00, 0x00, 0x40, 0x00, 0x00, 0x00, 0x00, 0x00, 0x00, 0x00, 0x00, 0x00, 0x00, 0x00, 0x00, 0x00, 0x00, 0x00, 0x00, 0x00, 0x00, 0x00, 0x00, 0x00, 0x00, 0x00, 0x00, 0x00, 0x00, 0x00, 0x00, 0x00, 0x00, 0x00, 0x00, 0x00, 0x00, 0x00, 0x00, 0x00, 0x00, 0x00, 0x00, 0x00, 0x00, 0x00, 0x00, 0x00, 0x00, 0x00, 0x00, 0x00, 0x00, 0x00, 0x00, 0x00, 0x00, 0x00, 0x00, 0x00, 0x00, 0x00, 0x00, 0x00, 0x00, 0x00, 0x00, 0x00, 0x00, 0x00, 0x00, 0x00, 0x00, 0x00, 0x00, 0x00, 0x00, 0x00, 0x00, 0x00, 0x00, 0x00, 0x00, 0x00, 0x00, 0x00, 0x00, 0x00, 0x00, 0x00, 0x00, 0x00, 0x00, 0x00, 0x00, 0x00, 0x00, 0x00, 0x00, 0x00, 0x00, 0x00, 0x00, 0x00, 0x00, 0x00, 0x00, 0x00, 0x00, 0x00, 0x00, 0x00, 0x00, 0x00, 0x00, 0x00, 0x00, 0x00, 0x00, 0x00, 0x00, 0x00, 0x00, 0x00, 0x00, 0x00, 0x00, 0x00, 0x00, 0x00, 0x00, 0x00, 0x00, 0x00, 0x00, 0x00, 0x00, 0x00, 0x00, 0x00, 0x00, 0x00, 0x00, 0x00, 0x00, 0x00, 0x00, 0x00, 0x00, 0x00, 0x00, 0x00, 0x00, 0x00, 0x00, 0x00, 0x00, 0x00, 0x00, 0x00, 0x00, 0x00, 0x00, 0x00, 0x00, 0x00, 0x00, 0x00, 0x00, 0x00, 0x00, 0x00, 0x00, 0x00, 0x00, 0x00, 0x00, 0x00, 0x00, 0x00, 0x00, 0x00, 0x00, 0x00, 0x00, 0x00, 0x00, 0x00, 0x00, 0x00, 0x00, 0x00, 0x00, 0x00, 0x00, 0x00, 0x00, 0x00, 0x00, 0x00, 0x00, 0x00, 0x00, 0x00, 0x00, 0x00, 0x00, 0x00, 0x00, 0x00, 0x00, 0x00, 0x00, 0x00, 0x00, 0x00, 0x00, 0x00, 0x00, 0x00, 0x00, 0x00, 0x00, 0x00, 0x00, 0x00, 0x00, 0x00, 0x00, 0x00, 0x00, 0x00, 0x00, 0x00, 0x00, 0x00, 0x00, 0x00, 0x00, 0x00, 0x00, 0x00, 0x00, 0x00, 0x00, 0x00, 0x00, 0x00, 0x00, 0x00, 0x00, 0x00, 0x00, 0x00, 0x00, 0x00, 0x00, 0x00, 0x00, 0x00, 0x00, 0x00, 0x00, 0x00, 0x00, 0x00, 0x00, 0x00, 0x00, 0x00, 0x00, 0x00, 0x00, 0x00, 0x00, 0x00, 0x00, 0x00, 0x00, 0x00, 0x00, 0x00, 0x00, 0x00, 0x00, 0x00, 0x00, 0x00, 0x00, 0x00, 0x00, 0x00, 0x00, 0x00, 0x00, 0x00, 0x00, 0x00, 0x00, 0x00, 0x00, 0x00, 0x00, 0x00, 0x00, 0x00, 0x00, 0x00, 0x00, 0x00, 0x00, 0x00, 0x00, 0x00, 0x00, 0x00, 0x00, 0x00, 0x00, 0x00, 0x00, 0x00, 0x00, 0x00, 0x00, 0x00, 0x00, 0x00, 0x00, 0x00, 0x00, 0x00, 0x00, 0x00, 0x00, 0x00, 0x00, 0x00, 0x00, 0x00, 0x00, 0x00, 0x00, 0x00, 0x00, 0x00, 0x00, 0x00, 0x00, 0x00, 0x00, 0x00, 0x00, 0x00, 0x00, 0x00, 0x00, 0x00, 0x00, 0x00, 0x00, 0x00, 0x00, 0x00, 0x00, 0x00, 0x00, 0x00, 0x00, 0x00, 0x00, 0x00, 0x00, 0x00, 0x00, 0x00, 0x00, 0x00, 0x00, 0x00, 0x00, 0x00, 0x00, 0x00, 0x00, 0x00, 0x00, 0x00, 0x00, 0x00, 0x00, 0x00, 0x00, 0x00, 0x00, 0x00, 0x00, 0x00, 0x00, 0x00, 0x00, 0x00, 0x00, 0x00, 0x00, 0x00, 0x00, 0x00, 0x00, 0x00, 0x00, 0x00, 0x00, 0x00, 0x00, 0x00, 0x00, 0x00, 0x00, 0x00, 0x00, 0x00, 0x00, 0x00, 0x00, 0x00, 0x00, 0x00, 0x00, 0x00, 0x00, 0x00, 0x00, 0x00, 0x00, 0x00, 0x00, 0x00, 0x00, 0x00, 0x00, 0x00, 0x00, 0x00, 0x00, 0x00, 0x00, 0x00, 0x00, 0x00, 0x00, 0x00, 0x00, 0x00, 0x00, 0x00, 0x00, 0x00, 0x00, 0x00, 0x00, 0x00, 0x00, 0x00, 0x00, 0x00, 0x00, 0x00, 0x00, 0x00, 0x00, 0x00, 0x00, 0x00, 0x00, 0x00, 0x00, 0x00, 0x00, 0x00, 0x00, 0x00, 0x00, 0x00, 0x00, 0x00, 0x00, 0x00, 0x00, 0x00, 0x00, 0x00, 0x00, 0x00, 0x00, 0x00, 0x00, 0x00, 0x00, 0x00, 0x00, 0x00, 0x00, 0x00, 0x00, 0x00, 0x00, 0x00, 0x00, 0x00, 0x00, 0x00, 0x00, 0x00, 0x00, 0x00, 0x00, 0x00, 0x00, 0x00, 0x00, 0x00, 0x40, 0x00, 0x00, 0x00, 0x5b, 0xe5, 0xa7, 0x3b, 0xac, 0xed, 0x7d, 0x3b, 0x82, 0x22, 0x54, 0x3b, 0xb5, 0x56, 0x71, 0x3b, 0xf9, 0x8b, 0x7e, 0x3b, 0xa2, 0xc8, 0x75, 0x3b, 0x22, 0x4d, 0x74, 0x3b, 0x8d, 0x43, 0x89, 0x3b, 0xac, 0x43, 0x92, 0x3b, 0x4d, 0xdc, 0x92, 0x3b, 0xd6, 0x15, 0x6d, 0x3b, 0xa9, 0x02, 0x86, 0x3b, 0xd7, 0x01, 0x98, 0x3b, 0x60, 0x16, 0x65, 0x3b, 0x41, 0x4d, 0x91, 0x3b, 0x44, 0xf3, 0xc0, 0x3b, 0x51, 0x22, 0xcb, 0x3b, 0xe8, 0x87, 0xa0, 0x3b, 0x74, 0xda, 0x89, 0x3b, 0xf7, 0x74, 0x7f, 0x3b, 0x73, 0xc3, 0x5d, 0x3b, 0x3e, 0x0e, 0xc3, 0x3b, 0x99, 0x53, 0x4e, 0x3b, 0x73, 0xa7, 0x8f, 0x3b, 0x01, 0x10, 0x57, 0x3b, 0xfc, 0x79, 0x59, 0x3b, 0x1e, 0x4f, 0x2c, 0x3b, 0x99, 0x78, 0x7d, 0x3b, 0x96, 0x70, 0x9e, 0x3b, 0xb1, 0xba, 0x4d, 0x3b, 0x2d, 0xb7, 0x8b, 0x3b, 0x63, 0x9e, 0xa0, 0x3b, 0xb0, 0x5e, 0x94, 0x3b, 0x48, 0x36, 0x9b, 0x3b, 0x2c, 0x26, 0x2d, 0x3b, 0x5d, 0xb0, 0xa4, 0x3b, 0xaa, 0xd0, 0x4a, 0x3b, 0x61, 0x87, 0x69, 0x3b, 0xee, 0x3c, 0x79, 0x3b, 0x2b, 0xfa, 0x42, 0x3b, 0xf9, 0xc5, 0x50, 0x3b, 0x96, 0xa8, 0x66, 0x3b, 0x58, 0x2b, 0x72, 0x3b, 0x5c, 0xb4, 0xa4, 0x3b, 0xab, 0xc3, 0x85, 0x3b, 0x55, 0x82, 0x82, 0x3b, 0x2b, 0x0b, 0x70, 0x3b, 0xd7, 0x85, 0x3f, 0x3b, 0xf9, 0xef, 0x6f, 0x3b, 0x5e, 0x1b, 0x41, 0x3b, 0xe6, 0x67, 0x90, 0x3b, 0x98, 0x7a, 0x82, 0x3b, 0xb6, 0x96, 0x84, 0x3b, 0x1e, 0x2d, 0x6f, 0x3b, 0x35, 0x43, 0xb3, 0x3b, 0xb2, 0x79, 0x40, 0x3b, 0x4f, 0xe6, 0x89, 0x3b, 0x46, 0xcc, 0x88, 0x3b, 0xfa, 0xde, 0x91, 0x3b, 0xf3, 0xeb, 0x4b, 0x3b, 0xe9, 0x32, 0x64, 0x3b, 0xc5, 0xcf, 0x96, 0x3b, 0xd6, 0x92, 0xc2, 0x3b, 0xbb, 0xd4, 0x92, 0x3b, 0x12, 0x00, 0x00, 0x00, 0x74, 0x66, 0x6c, 0x2e, 0x70, 0x73, 0x65, 0x75, 0x64, 0x6f, 0x5f, 0x71, 0x63, 0x6f, 0x6e, 0x73, 0x74, 0x37, 0x00, 0x00, 0x02, 0x00, 0x00, 0x00, 0x40, 0x00, 0x00, 0x00, 0x2f, 0x00, 0x00, 0x00, 0x7a, 0xf6, 0xff, 0xff, 0x00, 0x00, 0x00, 0x01, 0x14, 0x00, 0x00, 0x00, 0x24, 0x03, 0x00, 0x00, 0x08, 0x00, 0x00, 0x00, 0x00, 0x00, 0x00, 0x02, 0x30, 0x03, 0x00, 0x00, 0x64, 0xf6, 0xff, 0xff, 0x08, 0x00, 0x00, 0x00, 0x08, 0x02, 0x00, 0x00, 0x40, 0x00, 0x00, 0x00, 0x00, 0x00, 0x00, 0x00, 0x00, 0x00, 0x00, 0x00, 0x00, 0x00, 0x00, 0x00, 0x00, 0x00, 0x00, 0x00, 0x00, 0x00, 0x00, 0x00, 0x00, 0x00, 0x00, 0x00, 0x00, 0x00, 0x00, 0x00, 0x00, 0x00, 0x00, 0x00, 0x00, 0x00, 0x00, 0x00, 0x00, 0x00, 0x00, 0x00, 0x00, 0x00, 0x00, 0x00, 0x00, 0x00, 0x00, 0x00, 0x00, 0x00, 0x00, 0x00, 0x00, 0x00, 0x00, 0x00, 0x00, 0x00, 0x00, 0x00, 0x00, 0x00, 0x00, 0x00, 0x00, 0x00, 0x00, 0x00, 0x00, 0x00, 0x00, 0x00, 0x00, 0x00, 0x00, 0x00, 0x00, 0x00, 0x00, 0x00, 0x00, 0x00, 0x00, 0x00, 0x00, 0x00, 0x00, 0x00, 0x00, 0x00, 0x00, 0x00, 0x00, 0x00, 0x00, 0x00, 0x00, 0x00, 0x00, 0x00, 0x00, 0x00, 0x00, 0x00, 0x00, 0x00, 0x00, 0x00, 0x00, 0x00, 0x00, 0x00, 0x00, 0x00, 0x00, 0x00, 0x00, 0x00, 0x00, 0x00, 0x00, 0x00, 0x00, 0x00, 0x00, 0x00, 0x00, 0x00, 0x00, 0x00, 0x00, 0x00, 0x00, 0x00, 0x00, 0x00, 0x00, 0x00, 0x00, 0x00, 0x00, 0x00, 0x00, 0x00, 0x00, 0x00, 0x00, 0x00, 0x00, 0x00, 0x00, 0x00, 0x00, 0x00, 0x00, 0x00, 0x00, 0x00, 0x00, 0x00, 0x00, 0x00, 0x00, 0x00, 0x00, 0x00, 0x00, 0x00, 0x00, 0x00, 0x00, 0x00, 0x00, 0x00, 0x00, 0x00, 0x00, 0x00, 0x00, 0x00, 0x00, 0x00, 0x00, 0x00, 0x00, 0x00, 0x00, 0x00, 0x00, 0x00, 0x00, 0x00, 0x00, 0x00, 0x00, 0x00, 0x00, 0x00, 0x00, 0x00, 0x00, 0x00, 0x00, 0x00, 0x00, 0x00, 0x00, 0x00, 0x00, 0x00, 0x00, 0x00, 0x00, 0x00, 0x00, 0x00, 0x00, 0x00, 0x00, 0x00, 0x00, 0x00, 0x00, 0x00, 0x00, 0x00, 0x00, 0x00, 0x00, 0x00, 0x00, 0x00, 0x00, 0x00, 0x00, 0x00, 0x00, 0x00, 0x00, 0x00, 0x00, 0x00, 0x00, 0x00, 0x00, 0x00, 0x00, 0x00, 0x00, 0x00, 0x00, 0x00, 0x00, 0x00, 0x00, 0x00, 0x00, 0x00, 0x00, 0x00, 0x00, 0x00, 0x00, 0x00, 0x00, 0x00, 0x00, 0x00, 0x00, 0x00, 0x00, 0x00, 0x00, 0x00, 0x00, 0x00, 0x00, 0x00, 0x00, 0x00, 0x00, 0x00, 0x00, 0x00, 0x00, 0x00, 0x00, 0x00, 0x00, 0x00, 0x00, 0x00, 0x00, 0x00, 0x00, 0x00, 0x00, 0x00, 0x00, 0x00, 0x00, 0x00, 0x00, 0x00, 0x00, 0x00, 0x00, 0x00, 0x00, 0x00, 0x00, 0x00, 0x00, 0x00, 0x00, 0x00, 0x00, 0x00, 0x00, 0x00, 0x00, 0x00, 0x00, 0x00, 0x00, 0x00, 0x00, 0x00, 0x00, 0x00, 0x00, 0x00, 0x00, 0x00, 0x00, 0x00, 0x00, 0x00, 0x00, 0x00, 0x00, 0x00, 0x00, 0x00, 0x00, 0x00, 0x00, 0x00, 0x00, 0x00, 0x00, 0x00, 0x00, 0x00, 0x00, 0x00, 0x00, 0x00, 0x00, 0x00, 0x00, 0x00, 0x00, 0x00, 0x00, 0x00, 0x00, 0x00, 0x00, 0x00, 0x00, 0x00, 0x00, 0x00, 0x00, 0x00, 0x00, 0x00, 0x00, 0x00, 0x00, 0x00, 0x00, 0x00, 0x00, 0x00, 0x00, 0x00, 0x00, 0x00, 0x00, 0x00, 0x00, 0x00, 0x00, 0x00, 0x00, 0x00, 0x00, 0x00, 0x00, 0x00, 0x00, 0x00, 0x00, 0x00, 0x00, 0x00, 0x00, 0x00, 0x00, 0x00, 0x00, 0x00, 0x00, 0x00, 0x00, 0x00, 0x00, 0x00, 0x00, 0x00, 0x00, 0x00, 0x00, 0x00, 0x00, 0x00, 0x00, 0x00, 0x00, 0x00, 0x00, 0x00, 0x00, 0x00, 0x00, 0x00, 0x00, 0x00, 0x00, 0x00, 0x00, 0x00, 0x00, 0x00, 0x00, 0x00, 0x00, 0x00, 0x00, 0x00, 0x00, 0x00, 0x00, 0x00, 0x00, 0x00, 0x00, 0x00, 0x00, 0x00, 0x00, 0x00, 0x00, 0x00, 0x00, 0x00, 0x00, 0x00, 0x00, 0x00, 0x00, 0x00, 0x00, 0x00, 0x00, 0x00, 0x00, 0x00, 0x00, 0x00, 0x00, 0x00, 0x00, 0x00, 0x00, 0x00, 0x00, 0x00, 0x00, 0x00, 0x00, 0x00, 0x00, 0x00, 0x00, 0x00, 0x00, 0x00, 0x00, 0x00, 0x00, 0x00, 0x00, 0x00, 0x00, 0x00, 0x00, 0x00, 0x00, 0x00, 0x40, 0x00, 0x00, 0x00, 0x4c, 0x3a, 0x54, 0x3a, 0xfe, 0x7c, 0x20, 0x3a, 0xe4, 0x12, 0x06, 0x3a, 0x02, 0x88, 0x18, 0x3a, 0x0b, 0xe1, 0x20, 0x3a, 0x34, 0x57, 0x1b, 0x3a, 0x5a, 0x67, 0x1a, 0x3a, 0xea, 0x81, 0x2d, 0x3a, 0x6c, 0xe2, 0x38, 0x3a, 0x5a, 0xa3, 0x39, 0x3a, 0xd2, 0xd7, 0x15, 0x3a, 0x1b, 0x65, 0x29, 0x3a, 0xc8, 0x24, 0x40, 0x3a, 0xc8, 0xc9, 0x10, 0x3a, 0xf1, 0xaa, 0x37, 0x3a, 0xc2, 0xe5, 0x73, 0x3a, 0x97, 0x62, 0x80, 0x3a, 0x02, 0xeb, 0x4a, 0x3a, 0xa9, 0x40, 0x2e, 0x3a, 0x4c, 0x74, 0x21, 0x3a, 0xc9, 0x28, 0x0c, 0x3a, 0x0c, 0x8f, 0x76, 0x3a, 0x21, 0x67, 0x02, 0x3a, 0xc3, 0x95, 0x35, 0x3a, 0x96, 0xec, 0x07, 0x3a, 0x2a, 0x73, 0x09, 0x3a, 0x5d, 0xce, 0xd9, 0x39, 0x00, 0x33, 0x20, 0x3a, 0x57, 0x46, 0x48, 0x3a, 0x7d, 0x06, 0x02, 0x3a, 0x43, 0x9b, 0x30, 0x3a, 0x6c, 0x07, 0x4b, 0x3a, 0xc3, 0x8b, 0x3b, 0x3a, 0xda, 0x31, 0x44, 0x3a, 0x34, 0xde, 0xda, 0x39, 0x87, 0x2c, 0x50, 0x3a, 0xfc, 0x2e, 0x00, 0x3a, 0x64, 0x98, 0x13, 0x3a, 0x19, 0x86, 0x1d, 0x3a, 0xac, 0x75, 0xf6, 0x39, 0x03, 0xf3, 0x03, 0x3a, 0xfc, 0xc7, 0x11, 0x3a, 0x67, 0x0e, 0x19, 0x3a, 0x94, 0x31, 0x50, 0x3a, 0x7b, 0x15, 0x29, 0x3a, 0x1b, 0xf8, 0x24, 0x3a, 0x78, 0xb6, 0x17, 0x3a, 0xd8, 0x17, 0xf2, 0x39, 0x48, 0xa5, 0x17, 0x3a, 0x72, 0x18, 0xf4, 0x39, 0x07, 0x89, 0x36, 0x3a, 0x53, 0xee, 0x24, 0x3a, 0x0f, 0x99, 0x27, 0x3a, 0x21, 0x2a, 0x17, 0x3a, 0x79, 0x98, 0x62, 0x3a, 0x16, 0x4c, 0xf3, 0x39, 0xa6, 0x4f, 0x2e, 0x3a, 0x25, 0xeb, 0x2c, 0x3a, 0x24, 0x63, 0x38, 0x3a, 0x07, 0xe2, 0x00, 0x3a, 0x04, 0x3a, 0x10, 0x3a, 0xe5, 0xa1, 0x3e, 0x3a, 0x0e, 0xf3, 0x75, 0x3a, 0xc9, 0x99, 0x39, 0x3a, 0x12, 0x00, 0x00, 0x00, 0x74, 0x66, 0x6c, 0x2e, 0x70, 0x73, 0x65, 0x75, 0x64, 0x6f, 0x5f, 0x71, 0x63, 0x6f, 0x6e, 0x73, 0x74, 0x36, 0x00, 0x00, 0x01, 0x00, 0x00, 0x00, 0x40, 0x00, 0x00, 0x00, 0xca, 0xf9, 0xff, 0xff, 0x00, 0x00, 0x00, 0x01, 0x14, 0x00, 0x00, 0x00, 0xa8, 0x01, 0x00, 0x00, 0x07, 0x00, 0x00, 0x00, 0x00, 0x00, 0x00, 0x09, 0xb4, 0x01, 0x00, 0x00, 0xb4, 0xf9, 0xff, 0xff, 0x08, 0x00, 0x00, 0x00, 0x0c, 0x01, 0x00, 0x00, 0x20, 0x00, 0x00, 0x00, 0x00, 0x00, 0x00, 0x00, 0x00, 0x00, 0x00, 0x00, 0x00, 0x00, 0x00, 0x00, 0x00, 0x00, 0x00, 0x00, 0x00, 0x00, 0x00, 0x00, 0x00, 0x00, 0x00, 0x00, 0x00, 0x00, 0x00, 0x00, 0x00, 0x00, 0x00, 0x00, 0x00, 0x00, 0x00, 0x00, 0x00, 0x00, 0x00, 0x00, 0x00, 0x00, 0x00, 0x00, 0x00, 0x00, 0x00, 0x00, 0x00, 0x00, 0x00, 0x00, 0x00, 0x00, 0x00, 0x00, 0x00, 0x00, 0x00, 0x00, 0x00, 0x00, 0x00, 0x00, 0x00, 0x00, 0x00, 0x00, 0x00, 0x00, 0x00, 0x00, 0x00, 0x00, 0x00, 0x00, 0x00, 0x00, 0x00, 0x00, 0x00, 0x00, 0x00, 0x00, 0x00, 0x00, 0x00, 0x00, 0x00, 0x00, 0x00, 0x00, 0x00, 0x00, 0x00, 0x00, 0x00, 0x00, 0x00, 0x00, 0x00, 0x00, 0x00, 0x00, 0x00, 0x00, 0x00, 0x00, 0x00, 0x00, 0x00, 0x00, 0x00, 0x00, 0x00, 0x00, 0x00, 0x00, 0x00, 0x00, 0x00, 0x00, 0x00, 0x00, 0x00, 0x00, 0x00, 0x00, 0x00, 0x00, 0x00, 0x00, 0x00, 0x00, 0x00, 0x00, 0x00, 0x00, 0x00, 0x00, 0x00, 0x00, 0x00, 0x00, 0x00, 0x00, 0x00, 0x00, 0x00, 0x00, 0x00, 0x00, 0x00, 0x00, 0x00, 0x00, 0x00, 0x00, 0x00, 0x00, 0x00, 0x00, 0x00, 0x00, 0x00, 0x00, 0x00, 0x00, 0x00, 0x00, 0x00, 0x00, 0x00, 0x00, 0x00, 0x00, 0x00, 0x00, 0x00, 0x00, 0x00, 0x00, 0x00, 0x00, 0x00, 0x00, 0x00, 0x00, 0x00, 0x00, 0x00, 0x00, 0x00, 0x00, 0x00, 0x00, 0x00, 0x00, 0x00, 0x00, 0x00, 0x00, 0x00, 0x00, 0x00, 0x00, 0x00, 0x00, 0x00, 0x00, 0x00, 0x00, 0x00, 0x00, 0x00, 0x00, 0x00, 0x00, 0x00, 0x00, 0x00, 0x00, 0x00, 0x00, 0x00, 0x00, 0x00, 0x00, 0x00, 0x00, 0x00, 0x00, 0x00, 0x00, 0x00, 0x00, 0x00, 0x00, 0x00, 0x00, 0x00, 0x00, 0x00, 0x00, 0x00, 0x00, 0x00, 0x00, 0x00, 0x00, 0x00, 0x00, 0x00, 0x00, 0x00, 0x00, 0x00, 0x00, 0x00, 0x00, 0x20, 0x00, 0x00, 0x00, 0x21, 0x3d, 0x8a, 0x3c, 0x8a, 0x2f, 0xe9, 0x3c, 0x1e, 0xce, 0xb2, 0x3c, 0x99, 0x61, 0x61, 0x3d, 0x88, 0xcd, 0x68, 0x3d, 0x42, 0xb3, 0x5c, 0x3c, 0xf8, 0x47, 0x35, 0x3d, 0xa2, 0x3e, 0x57, 0x3d, 0x34, 0x38, 0xb8, 0x3c, 0x92, 0x24, 0xfe, 0x3c, 0xae, 0xa4, 0xf3, 0x3c, 0x3a, 0x0a, 0xaa, 0x3c, 0x48, 0x16, 0x14, 0x3d, 0x26, 0x28, 0x30, 0x3d, 0xc6, 0xc9, 0x41, 0x3d, 0x71, 0x24, 0x0d, 0x3d, 0x95, 0x73, 0xcc, 0x3c, 0xa7, 0xb8, 0x01, 0x3e, 0x10, 0xac, 0x10, 0x3d, 0x31, 0x71, 0x28, 0x3d, 0xf4, 0xbe, 0x0a, 0x3e, 0x95, 0xff, 0x0c, 0x3d, 0xe7, 0xbb, 0xaa, 0x3d, 0xa5, 0x0a, 0xe8, 0x3d, 0xef, 0x2d, 0x38, 0x3d, 0xc8, 0x8c, 0xa0, 0x3d, 0x1a, 0x6e, 0xd0, 0x3c, 0xbe, 0x14, 0xe2, 0x3c, 0xae, 0xad, 0x6c, 0x3d, 0x31, 0xb8, 0xd1, 0x3d, 0x72, 0x3f, 0x11, 0x3d, 0xbc, 0x12, 0x4f, 0x3d, 0x12, 0x00, 0x00, 0x00, 0x74, 0x66, 0x6c, 0x2e, 0x70, 0x73, 0x65, 0x75, 0x64, 0x6f, 0x5f, 0x71, 0x63, 0x6f, 0x6e, 0x73, 0x74, 0x35, 0x00, 0x00, 0x02, 0x00, 0x00, 0x00, 0x20, 0x00, 0x00, 0x00, 0x40, 0x00, 0x00, 0x00, 0xa2, 0xfb, 0xff, 0xff, 0x00, 0x00, 0x00, 0x01, 0x14, 0x00, 0x00, 0x00, 0xa4, 0x01, 0x00, 0x00, 0x06, 0x00, 0x00, 0x00, 0x00, 0x00, 0x00, 0x02, 0xb0, 0x01, 0x00, 0x00, 0x8c, 0xfb, 0xff, 0xff, 0x08, 0x00, 0x00, 0x00, 0x08, 0x01, 0x00, 0x00, 0x20, 0x00, 0x00, 0x00, 0x00, 0x00, 0x00, 0x00, 0x00, 0x00, 0x00, 0x00, 0x00, 0x00, 0x00, 0x00, 0x00, 0x00, 0x00, 0x00, 0x00, 0x00, 0x00, 0x00, 0x00, 0x00, 0x00, 0x00, 0x00, 0x00, 0x00, 0x00, 0x00, 0x00, 0x00, 0x00, 0x00, 0x00, 0x00, 0x00, 0x00, 0x00, 0x00, 0x00, 0x00, 0x00, 0x00, 0x00, 0x00, 0x00, 0x00, 0x00, 0x00, 0x00, 0x00, 0x00, 0x00, 0x00, 0x00, 0x00, 0x00, 0x00, 0x00, 0x00, 0x00, 0x00, 0x00, 0x00, 0x00, 0x00, 0x00, 0x00, 0x00, 0x00, 0x00, 0x00, 0x00, 0x00, 0x00, 0x00, 0x00, 0x00, 0x00, 0x00, 0x00, 0x00, 0x00, 0x00, 0x00, 0x00, 0x00, 0x00, 0x00, 0x00, 0x00, 0x00, 0x00, 0x00, 0x00, 0x00, 0x00, 0x00, 0x00, 0x00, 0x00, 0x00, 0x00, 0x00, 0x00, 0x00, 0x00, 0x00, 0x00, 0x00, 0x00, 0x00, 0x00, 0x00, 0x00, 0x00, 0x00, 0x00, 0x00, 0x00, 0x00, 0x00, 0x00, 0x00, 0x00, 0x00, 0x00, 0x00, 0x00, 0x00, 0x00, 0x00, 0x00, 0x00, 0x00, 0x00, 0x00, 0x00, 0x00, 0x00, 0x00, 0x00, 0x00, 0x00, 0x00, 0x00, 0x00, 0x00, 0x00, 0x00, 0x00, 0x00, 0x00, 0x00, 0x00, 0x00, 0x00, 0x00, 0x00, 0x00, 0x00, 0x00, 0x00, 0x00, 0x00, 0x00, 0x00, 0x00, 0x00, 0x00, 0x00, 0x00, 0x00, 0x00, 0x00, 0x00, 0x00, 0x00, 0x00, 0x00, 0x00, 0x00, 0x00, 0x00, 0x00, 0x00, 0x00, 0x00, 0x00, 0x00, 0x00, 0x00, 0x00, 0x00, 0x00, 0x00, 0x00, 0x00, 0x00, 0x00, 0x00, 0x00, 0x00, 0x00, 0x00, 0x00, 0x00, 0x00, 0x00, 0x00, 0x00, 0x00, 0x00, 0x00, 0x00, 0x00, 0x00, 0x00, 0x00, 0x00, 0x00, 0x00, 0x00, 0x00, 0x00, 0x00, 0x00, 0x00, 0x00, 0x00, 0x00, 0x00, 0x00, 0x00, 0x00, 0x00, 0x00, 0x00, 0x00, 0x00, 0x00, 0x00, 0x00, 0x00, 0x00, 0x00, 0x00, 0x00, 0x00, 0x00, 0x00, 0x00, 0x00, 0x00, 0x00, 0x00, 0x20, 0x00, 0x00, 0x00, 0x45, 0xea, 0x8a, 0x3a, 0x99, 0x53, 0xea, 0x3a, 0x11, 0xae, 0xb3, 0x3a, 0xe2, 0x7b, 0x62, 0x3b, 0x1c, 0xf1, 0x69, 0x3b, 0xae, 0xc7, 0x5d, 0x3a, 0x05, 0x2b, 0x36, 0x3b, 0x39, 0x4c, 0x58, 0x3b, 0xef, 0x1e, 0xb9, 0x3a, 0xe1, 0x62, 0xff, 0x3a, 0xd6, 0xd5, 0xf4, 0x3a, 0x32, 0xdf, 0xaa, 0x3a, 0xc2, 0xcf, 0x14, 0x3b, 0xc8, 0x04, 0x31, 0x3b, 0x7d, 0xbc, 0x42, 0x3b, 0x38, 0xd5, 0x0d, 0x3b, 0xa7, 0x73, 0xcd, 0x3a, 0x20, 0x5b, 0x02, 0x3c, 0x43, 0x61, 0x11, 0x3b, 0x29, 0x44, 0x29, 0x3b, 0xba, 0x6c, 0x0b, 0x3c, 0x2e, 0xb0, 0x0d, 0x3b, 0xbe, 0x91, 0xab, 0x3b, 0x45, 0x2d, 0xe9, 0x3b, 0x9d, 0x14, 0x39, 0x3b, 0xde, 0x55, 0xa1, 0x3b, 0x28, 0x73, 0xd1, 0x3a, 0xe7, 0x2f, 0xe3, 0x3a, 0x1d, 0xd6, 0x6d, 0x3b, 0xdc, 0xbe, 0xd2, 0x3b, 0x5d, 0xf5, 0x11, 0x3b, 0x16, 0x16, 0x50, 0x3b, 0x12, 0x00, 0x00, 0x00, 0x74, 0x66, 0x6c, 0x2e, 0x70, 0x73, 0x65, 0x75, 0x64, 0x6f, 0x5f, 0x71, 0x63, 0x6f, 0x6e, 0x73, 0x74, 0x34, 0x00, 0x00, 0x01, 0x00, 0x00, 0x00, 0x20, 0x00, 0x00, 0x00, 0x72, 0xfd, 0xff, 0xff, 0x00, 0x00, 0x00, 0x01, 0x14, 0x00, 0x00, 0x00, 0xe8, 0x00, 0x00, 0x00, 0x05, 0x00, 0x00, 0x00, 0x00, 0x00, 0x00, 0x09, 0xf4, 0x00, 0x00, 0x00, 0x5c, 0xfd, 0xff, 0xff, 0x08, 0x00, 0x00, 0x00, 0x8c, 0x00, 0x00, 0x00, 0x10, 0x00, 0x00, 0x00, 0x00, 0x00, 0x00, 0x00, 0x00, 0x00, 0x00, 0x00, 0x00, 0x00, 0x00, 0x00, 0x00, 0x00, 0x00, 0x00, 0x00, 0x00, 0x00, 0x00, 0x00, 0x00, 0x00, 0x00, 0x00, 0x00, 0x00, 0x00, 0x00, 0x00, 0x00, 0x00, 0x00, 0x00, 0x00, 0x00, 0x00, 0x00, 0x00, 0x00, 0x00, 0x00, 0x00, 0x00, 0x00, 0x00, 0x00, 0x00, 0x00, 0x00, 0x00, 0x00, 0x00, 0x00, 0x00, 0x00, 0x00, 0x00, 0x00, 0x00, 0x00, 0x00, 0x00, 0x00, 0x00, 0x00, 0x00, 0x00, 0x00, 0x00, 0x00, 0x00, 0x00, 0x00, 0x00, 0x00, 0x00, 0x00, 0x00, 0x00, 0x00, 0x00, 0x00, 0x00, 0x00, 0x00, 0x00, 0x00, 0x00, 0x00, 0x00, 0x00, 0x00, 0x00, 0x00, 0x00, 0x00, 0x00, 0x00, 0x00, 0x00, 0x00, 0x00, 0x00, 0x00, 0x00, 0x00, 0x00, 0x00, 0x00, 0x00, 0x00, 0x00, 0x00, 0x00, 0x00, 0x00, 0x00, 0x00, 0x00, 0x00, 0x00, 0x00, 0x00, 0x00, 0x00, 0x00, 0x00, 0x00, 0x00, 0x00, 0x00, 0x10, 0x00, 0x00, 0x00, 0xfd, 0x66, 0x84, 0x3b, 0x79, 0xe2, 0x4f, 0x3b, 0x7e, 0x82, 0x78, 0x3b, 0x08, 0x71, 0x53, 0x3b, 0x20, 0x90, 0x14, 0x3b, 0x17, 0xc3, 0x89, 0x3b, 0xea, 0x6e, 0x94, 0x3b, 0xb7, 0xae, 0x95, 0x3b, 0x33, 0x1f, 0x59, 0x3b, 0xf7, 0xef, 0x84, 0x3b, 0x80, 0x46, 0x55, 0x3b, 0x52, 0x52, 0x40, 0x3b, 0x2e, 0x0d, 0x87, 0x3b, 0xd5, 0x48, 0x4f, 0x3b, 0xe2, 0x23, 0xb4, 0x3b, 0x4b, 0x04, 0x11, 0x3b, 0x12, 0x00, 0x00, 0x00, 0x74, 0x66, 0x6c, 0x2e, 0x70, 0x73, 0x65, 0x75, 0x64, 0x6f, 0x5f, 0x71, 0x63, 0x6f, 0x6e, 0x73, 0x74, 0x33, 0x00, 0x00, 0x02, 0x00, 0x00, 0x00, 0x10, 0x00, 0x00, 0x00, 0x20, 0x00, 0x00, 0x00, 0x8a, 0xfe, 0xff, 0xff, 0x00, 0x00, 0x00, 0x01, 0x14, 0x00, 0x00, 0x00, 0xe4, 0x00, 0x00, 0x00, 0x04, 0x00, 0x00, 0x00, 0x00, 0x00, 0x00, 0x02, 0xf0, 0x00, 0x00, 0x00, 0x74, 0xfe, 0xff, 0xff, 0x08, 0x00, 0x00, 0x00, 0x88, 0x00, 0x00, 0x00, 0x10, 0x00, 0x00, 0x00, 0x00, 0x00, 0x00, 0x00, 0x00, 0x00, 0x00, 0x00, 0x00, 0x00, 0x00, 0x00, 0x00, 0x00, 0x00, 0x00, 0x00, 0x00, 0x00, 0x00, 0x00, 0x00, 0x00, 0x00, 0x00, 0x00, 0x00, 0x00, 0x00, 0x00, 0x00, 0x00, 0x00, 0x00, 0x00, 0x00, 0x00, 0x00, 0x00, 0x00, 0x00, 0x00, 0x00, 0x00, 0x00, 0x00, 0x00, 0x00, 0x00, 0x00, 0x00, 0x00, 0x00, 0x00, 0x00, 0x00, 0x00, 0x00, 0x00, 0x00, 0x00, 0x00, 0x00, 0x00, 0x00, 0x00, 0x00, 0x00, 0x00, 0x00, 0x00, 0x00, 0x00, 0x00, 0x00, 0x00, 0x00, 0x00, 0x00, 0x00, 0x00, 0x00, 0x00, 0x00, 0x00, 0x00, 0x00, 0x00, 0x00, 0x00, 0x00, 0x00, 0x00, 0x00, 0x00, 0x00, 0x00, 0x00, 0x00, 0x00, 0x00, 0x00, 0x00, 0x00, 0x00, 0x00, 0x00, 0x00, 0x00, 0x00, 0x00, 0x00, 0x00, 0x00, 0x00, 0x00, 0x00, 0x00, 0x00, 0x00, 0x00, 0x00, 0x00, 0x00, 0x00, 0x00, 0x00, 0x00, 0x10, 0x00, 0x00, 0x00, 0xec, 0x86, 0x2b, 0x3a, 0x3d, 0xa8, 0x06, 0x3a, 0xd8, 0xf8, 0x20, 0x3a, 0x0d, 0xf6, 0x08, 0x3a, 0x94, 0x76, 0xc0, 0x39, 0x7a, 0x78, 0x32, 0x3a, 0x8e, 0x4b, 0x40, 0x3a, 0xdb, 0xe9, 0x41, 0x3a, 0xfd, 0xa3, 0x0c, 0x3a, 0x60, 0x38, 0x2c, 0x3a, 0x26, 0x26, 0x0a, 0x3a, 0x03, 0x27, 0xf9, 0x39, 0x85, 0xf5, 0x2e, 0x3a, 0xb8, 0x44, 0x06, 0x3a, 0x14, 0x5f, 0x69, 0x3a, 0x7c, 0xde, 0xbb, 0x39, 0x12, 0x00, 0x00, 0x00, 0x74, 0x66, 0x6c, 0x2e, 0x70, 0x73, 0x65, 0x75, 0x64, 0x6f, 0x5f, 0x71, 0x63, 0x6f, 0x6e, 0x73, 0x74, 0x32, 0x00, 0x00, 0x01, 0x00, 0x00, 0x00, 0x10, 0x00, 0x00, 0x00, 0x9a, 0xff, 0xff, 0xff, 0x00, 0x00, 0x00, 0x01, 0x14, 0x00, 0x00, 0x00, 0x34, 0x00, 0x00, 0x00, 0x03, 0x00, 0x00, 0x00, 0x00, 0x00, 0x00, 0x09, 0x40, 0x00, 0x00, 0x00, 0x84, 0xff, 0xff, 0xff, 0x08, 0x00, 0x00, 0x00, 0x14, 0x00, 0x00, 0x00, 0x01, 0x00, 0x00, 0x00, 0x00, 0x00, 0x00, 0x00, 0x00, 0x00, 0x00, 0x00, 0x00, 0x00, 0x00, 0x00, 0x01, 0x00, 0x00, 0x00, 0xf1, 0x7c, 0x99, 0x3b, 0x12, 0x00, 0x00, 0x00, 0x74, 0x66, 0x6c, 0x2e, 0x70, 0x73, 0x65, 0x75, 0x64, 0x6f, 0x5f, 0x71, 0x63, 0x6f, 0x6e, 0x73, 0x74, 0x31, 0x00, 0x00, 0x02, 0x00, 0x00, 0x00, 0x01, 0x00, 0x00, 0x00, 0x10, 0x00, 0x00, 0x00, 0x00, 0x00, 0x16, 0x00, 0x1c, 0x00, 0x18, 0x00, 0x17, 0x00, 0x10, 0x00, 0x0c, 0x00, 0x08, 0x00, 0x00, 0x00, 0x00, 0x00, 0x00, 0x00, 0x07, 0x00, 0x16, 0x00, 0x00, 0x00, 0x00, 0x00, 0x00, 0x01, 0x20, 0x00, 0x00, 0x00, 0x3c, 0x00, 0x00, 0x00, 0x02, 0x00, 0x00, 0x00, 0x00, 0x00, 0x00, 0x02, 0x48, 0x00, 0x00, 0x00, 0x0c, 0x00, 0x0c, 0x00, 0x00, 0x00, 0x00, 0x00, 0x08, 0x00, 0x04, 0x00, 0x0c, 0x00, 0x00, 0x00, 0x08, 0x00, 0x00, 0x00, 0x10, 0x00, 0x00, 0x00, 0x01, 0x00, 0x00, 0x00, 0x00, 0x00, 0x00, 0x00, 0x00, 0x00, 0x00, 0x00, 0x01, 0x00, 0x00, 0x00, 0xbb, 0x8e, 0x1a, 0x3a, 0x11, 0x00, 0x00, 0x00, 0x74, 0x66, 0x6c, 0x2e, 0x70, 0x73, 0x65, 0x75, 0x64, 0x6f, 0x5f, 0x71, 0x63, 0x6f, 0x6e, 0x73, 0x74, 0x00, 0x00, 0x00, 0x01, 0x00, 0x00, 0x00, 0x01, 0x00, 0x00, 0x00, 0x00, 0x00, 0x16, 0x00, 0x1c, 0x00, 0x18, 0x00, 0x00, 0x00, 0x14, 0x00, 0x10, 0x00, 0x0c, 0x00, 0x00, 0x00, 0x00, 0x00, 0x08, 0x00, 0x07, 0x00, 0x16, 0x00, 0x00, 0x00, 0x00, 0x00, 0x00, 0x01, 0x14, 0x00, 0x00, 0x00, 0x20, 0x00, 0x00, 0x00, 0x20, 0x00, 0x00, 0x00, 0x01, 0x00, 0x00, 0x00, 0x3c, 0x00, 0x00, 0x00, 0x02, 0x00, 0x00, 0x00, 0xff, 0xff, 0xff, 0xff, 0x2f, 0x00, 0x00, 0x00, 0x04, 0x00, 0x04, 0x00, 0x04, 0x00, 0x00, 0x00, 0x1e, 0x00, 0x00, 0x00, 0x73, 0x65, 0x72, 0x76, 0x69, 0x6e, 0x67, 0x5f, 0x64, 0x65, 0x66, 0x61, 0x75, 0x6c, 0x74, 0x5f, 0x6b, 0x65, 0x72, 0x61, 0x73, 0x5f, 0x74, 0x65, 0x6e, 0x73, 0x6f, 0x72, 0x3a, 0x30, 0x00, 0x00, 0x02, 0x00, 0x00, 0x00, 0x01, 0x00, 0x00, 0x00, 0x2f, 0x00, 0x00, 0x00, 0x04, 0x00, 0x00, 0x00, 0x58, 0x00, 0x00, 0x00, 0x38, 0x00, 0x00, 0x00, 0x18, 0x00, 0x00, 0x00, 0x04, 0x00, 0x00, 0x00, 0xe0, 0xff, 0xff, 0xff, 0x06, 0x00, 0x00, 0x00, 0x02, 0x00, 0x00, 0x00, 0x00, 0x00, 0x00, 0x06, 0xf0, 0xff, 0xff, 0xff, 0x0e, 0x00, 0x00, 0x00, 0x02, 0x00, 0x00, 0x00, 0x00, 0x00, 0x00, 0x0e, 0x0c, 0x00, 0x10, 0x00, 0x0f, 0x00, 0x00, 0x00, 0x08, 0x00, 0x04, 0x00, 0x0c, 0x00, 0x00, 0x00, 0x09, 0x00, 0x00, 0x00, 0x04, 0x00, 0x00, 0x00, 0x00, 0x00, 0x00, 0x09, 0x0c, 0x00, 0x0c, 0x00, 0x0b, 0x00, 0x00, 0x00, 0x00, 0x00, 0x04, 0x00, 0x0c, 0x00, 0x00, 0x00, 0x72, 0x00, 0x00, 0x00, 0x00, 0x00, 0x00, 0x72
};

const unsigned int fall_detection_model_len = 12136;
